<unk>
<s>
</s>
,
.
the
in
of
and
die
der
to
und
a
is
that
zu
for
den
von
ist
on
für
an
with
The
be
mit
das
are
auf
(
)
des
I
-
as
eine
this
Sie
im
it
es
nicht
werden
we
:
have
ein
by
dass
not
wir
dem
Die
&quot;
sich
you
will
which
auch
was
at
from
or
sind
wird
has
als
um
ich
In
can
all
our
oder
also
haben
European
über
so
?
hat
einer
-@@
&apos;
/
sie
!
wie
zur
einen
Union
Das
&apos;s
er
bei
Ich
aus
We
können
your
its
but
am
would
more
one
This
their
einem
been
Wir
It
diese
nach
uns
zum
should
nur
kann
Mr
durch
s
un@@
Der
daß
Commission
very
must
dieser
do
Es
Kommission
de
;
vor
us
noch
there
they
other
EU
like
new
er@@
only
wurde
aber
time
müssen
about
wenn
Hotel
sehr
ver@@
Herr
an@@
sein
man
...
these
President
re@@
S@@
diesem
en
up
who
if
alle
no
in@@
war
Europäischen
any
A
out
mehr
e
Parliament
B@@
k@@
t
te
möchte
o
were
%
people
Europe
into
ten
en@@
s@@
2
ge@@
States
P@@
Member
i
report
bis
such
A@@
what
K@@
eines
need
my
T@@
use
countries
G@@
than
1
t@@
when
C@@
some
gibt
ab@@
ihre
Council
dieses
vom
well
now
D@@
d@@
important
make
work
Präsident
hotel
them
sowie
H@@
most
F@@
be@@
first
many
unter
hier
between
his
f@@
system
take
because
b@@
way
muss
Bericht
Parlament
zwischen
N@@
E@@
M@@
unsere
L@@
da
information
p@@
able
e@@
Ihnen
made
keine
ein@@
g@@
3
support
Ver@@
m
Mitgliedstaaten
y
m@@
An@@
al@@
c@@
he
anderen
had
If
just
years
o@@
those
ing
n@@
&#93;
&#91;
two
Europa
ch@@
W@@
dies
policy
over
where
ts
dann
R@@
immer
Wenn
diesen
me
being
i@@
z@@
aus@@
may
damit
Diese
y@@
good
gegen
wurden
Im
Frau
O@@
end
see
u@@
st@@
world
order
even
right
d
a@@
area
de@@
di@@
habe
Ihre
here
5
unserer
ed
li@@
jedoch
Europäische
4
sch@@
You
same
Ab@@
V@@
ter
v@@
year
possible
Zeit
place
gen
market
ers
part
There
sondern
As
through
ti@@
after
al
seine
neue
could
used
want
political
l@@
therefore
heute
Menschen
rights
bereits
development
10
le
within
For
el@@
mich
economic
denen
sollte
ation
europäischen
ar@@
h@@
own
against
how
ge
ung
si@@
I@@
finden
both
Rat
does
Jahr
then
much
.@@
Be@@
point
international
ohne
zu@@
sollten
ent@@
neuen
or@@
andere
&amp;
ihrer
k
under
find
auf@@
Frage
ri@@
room
Sch@@
public
ate
Jahren
Entwicklung
without
le@@
country
number
l
available
vor@@
zwei
allen
J@@
last
services
great
still
ganz
machen
geht
ro@@
service
Ein@@
fact
say
bietet
different
view
social
Z@@
g
believe
n
free
That
on@@
liegt
already
course
viele
set
um@@
Mit
w@@
Ein
at@@
future
know
Re@@
r@@
too
before
dazu
cannot
j@@
Aus@@
think
jetzt
es@@
weil
Unternehmen
ungen
get
Informationen
products
case
denn
ungs@@
ra@@
Maßnahmen
Lage
sten
wieder
darauf
data
la@@
process
Bereich
level
U@@
c
einige
6
dafür
today
situation
3@@
se
30
rooms
In@@
20
offers
human
p
über@@
bin
go
Welt
schon
But
Commissioner
la
issue
am@@
debate
So
However
2009
her
Dies
day
selbst
seiner
dis@@
th@@
Herrn
quality
Vor@@
geben
te@@
national
mir
sagen
em@@
Er@@
question
per
proposal
el
Arbeit
financial
during
city
meine
wollen
allem
best
viel
ihr
b
All
Eine
example
ihren
means
Our
unseren
ern
high
tes
small
ob
help
gut
said
every
ale
stehen
würde
problem
Al@@
x
lo@@
access
ch
stellen
Für
ische
since
clear
Land
measures
u
particular
Jahre
each
ab
including
7
form
möglich
ated
offer
Wie
etwas
areas
common
agreement
give
Zimmer
long
position
Committee
business
nun
op@@
bar
kommen
ensure
doch
Und
taken
st
Länder
citizens
provide
enden
put
lassen
next
während
few
insbesondere
ste
ischen
energy
sp@@
waren
z
8
4@@
wo
problems
based
systems
se@@
e-@@
again
large
15
Unterstützung
erhalten
ins
On
Zusammenarbeit
further
necessary
et
Rahmen
stay
vote
sehen
liche
x@@
steht
S
back
Ländern
&#124;
shall
Parlaments
come
however
seit
2@@
why
Vorschlag
change
ta@@
con@@
Internet
far
is@@
cooperation
given
security
ert
three
wichtig
et@@
besteht
Fall
ter@@
Art
soll
tun
co@@
Teil
Un@@
hope
h
im@@
politischen
ger
ersten
Problem
Fragen
They
2010
beim
To
ende
it@@
using
der@@
needs
action
ting
Bei
law
located
wäre
while
Bürger
einmal
always
einfach
EU-@@
eren
group
Ziel
Seite
protection
What
With
company
better
down
At
muß
Group
Kollegen
unter@@
50
Namen
us@@
deren
as@@
Community
C
Daten
Recht
dabei
worden
life
Was
And
drei
working
2008
19@@
House
Verfügung
did
letzten
gen@@
große
United
less
legal
lichen
main
programme
ens
seinen
ma@@
System
These
Bedeutung
12
ur@@
ke
men
os
vi@@
wissen
China
Sicherheit
großen
ating
Auf
welche
Stadt
ad@@
Y@@
Möglichkeit
particularly
present
X@@
full
around
When
Ihr
production
bringen
ber@@
Er
current
Auch
land
sh@@
ar
5@@
weiter
real
km
basis
terms
whether
Mrs
special
St@@
open
ten@@
Aber
issues
ja
result
gehen
daher
sk@@
together
Mar@@
f
ent
another
become
trade
Thema
conditions
Probleme
USA
ted
bieten
T
darüber
lich
management
9
site
power
Nach
certain
ly
davon
page
ler
ant
zi@@
ations
au@@
centre
to@@
kein
children
weitere
führen
Con@@
chen
Als
meiner
qu@@
ag@@
companies
aller
Ihrer
Weise
control
Kommissar
various
alles
done
location
Staaten
sowohl
sector
matter
D
erreichen
staff
B
close
ine
2000
old
ac@@
whole
ap@@
unterstützen
really
gi@@
role
könnte
ger@@
region
ck@@
Richtlinie
wirklich
100
natürlich
besonders
E
women
second
respect
specific
sen
stellt
industry
line
especially
budget
Regierung
r
Politik
ne@@
ates
account
Zukunft
state
health
00
water
Service
making
Ar@@
que
den@@
_
experience
verschiedenen
look
Beispiel
ser@@
unser
ous
befindet
möchten
inter@@
ihnen
going
innerhalb
2007
modern
ei@@
ings
Ende
local
bi@@
Kunden
18@@
eigenen
private
Euro
schen
em
resolution
research
mo@@
hatte
rapporteur
Ro@@
vielen
+
Rolle
O
les
*
continue
ol@@
hand
6@@
Weg
days
entfernt
ic
ask
EUR
fully
po@@
regard
gegenüber
German
software
tra@@
europäische
kommt
Ihren
US
om@@
ds
several
Frauen
zwar
25
major
internationalen
directive
something
ges
é@@
wish
Mo@@
itself
name
ere
start
excellent
Alle
000
her@@
du
transport
Meinung
che
rules
ie
direkt
pro@@
ak@@
ul@@
Hier
t-@@
politische
7@@
res
general
-S@@
often
single
Hotels
food
welcome
project
ment
Um
create
so@@
Madam
crisis
Ma@@
Situation
million
Artikel
da@@
away
Ge@@
ding
third
government
gentlemen
subject
Uhr
ans
sen@@
Tag
least
environment
global
money
following
arbeiten
personal
Germany
erste
Treaty
range
per@@
No
towards
ze
Lösung
Zusammenhang
Programm
age
bo@@
8@@
field
ex@@
thank
once
Pro@@
P
Auf@@
&apos;t
Präsidentin
things
institutions
red
off
stand
list
online
nehmen
little
Dieses
unserem
ä@@
He
side
pre@@
Deshalb
Mittel
until
Hilfe
increase
version
ing@@
mi@@
9@@
2006
found
bitte
beiden
quite
opportunity
aid
ken
gesagt
Zu@@
customers
product
par@@
positive
est@@
me@@
ci@@
individual
11
De@@
dort
est
ir@@
forward
Bo@@
agree
Di@@
Par@@
Produkte
len
nen
resources
Members
Co@@
provided
fast
daran
hi@@
approach
standards
amendments
men@@
call
gilt
weniger
40
tri@@
Region
ne
no@@
rather
him
New
los
price
proposals
activities
let
Haus
Schutz
jeder
growth
th
Fraktion
fi@@
Ex@@
a-@@
Grund
ve
Se@@
di
family
Über@@
bzw.
yet
tions
framework
solution
building
points
allow
value
design
.com
ko@@
Software
safety
ts@@
hinaus
Arbeits@@
include
decision
period
text
fen
taking
adopted
interest
gemacht
State
An
nämlich
having
0@@
home
Dieser
legislation
via
technology
light
town
Unter@@
due
progress
halten
Unsere
key
brauchen
might
World
ebenfalls
favour
Aussprache
darf
ung@@
reason
costs
members
wei@@
Um@@
opinion
del
Leben
isch
sogar
Millionen
einigen
times
indem
erte
ö@@
glaube
X
unterstützt
play
y-@@
Punkt
difficult
macht
website
dessen
gute
ladies
F
concerned
dürfen
zen
Website
minutes
sicher
Abstimmung
gu@@
En@@
ster
contact
ot@@
Rates
alen
responsibility
Personen
gt
ber
views
ce
words
After
Kinder
®
application
makes
M
gra@@
24
questions
results
ob@@
provides
behalf
projects
elle
One
etwa
ihn
darin
among
alten
ou@@
öffentlichen
Le@@
18
TV
ally
sche
14
ur
Inter@@
ha@@
ut@@
September
attention
economy
importance
air
ru@@
left
effective
nationalen
groups
R
Qualität
ischer
ali@@
enjoy
ses
Europas
others
betrifft
addition
station
easy
ihm
above
show
Da
schaffen
simply
do@@
keinen
policies
d-@@
Gemeinschaft
Form
International
sollen
Deutschland
fer@@
Ebene
L
&apos;@@
politik
non-@@
ben
environmental
greater
gerade
rate
handelt
Rechte
su@@
art
Lo@@
Restaurant
weiterhin
Bar@@
short
man@@
16
genau
all@@
klar
principle
bu@@
sa@@
nichts
Kon@@
required
complete
jeden
ded
society
breakfast
strategy
meisten
ons
2005
led
setzen
seinem
ho@@
pro
ideal
sti@@
training
kind
Finanz@@
w
wi@@
mit@@
wichtige
v
content
step
Mon@@
solche
sure
2004
authorities
ator
clearly
Th@@
deshalb
Wirtschaft
beautiful
Bezug
mon@@
durch@@
un
ati@@
Ad@@
gh@@
ihrem
deal
achieve
nutzen
ep@@
for@@
pi@@
Zugang
kon@@
du@@
hin@@
essential
Please
nach@@
findet
Dank
house
bereich
technical
Seiten
employment
under@@
sea
statt
address
serious
besser
hoffe
known
Ansicht
tion
zusammen
user
bedeutet
schnell
würden
Umsetzung
Ort
she
Haupt@@
re
called
cultural
weit
Li@@
proposed
meeting
deutlich
Menschenrechte
2001
ago
hei@@
Berlin
ia
Vertrag
ü@@
zurück@@
mer@@
car@@
along
ellen
needed
2003
responsible
13
ors
G
Rechts@@
führt
sei
ra
EN
facilities
nächsten
enough
currently
Kosten
Verfahren
natural
besten
gehört
ene
ven@@
lot
voted
erst
il@@
bring
recht
Aus
and@@
aufgrund
plan
feel
directly
thing
wide
internal
gel@@
ange@@
Windows
comfortable
standard
werde
Verantwortung
dar
bel@@
notwendig
licher
ary
recent
Vorschläge
involved
months
regulation
Richtung
regions
erung
implementation
extremely
please
allerdings
Ziele
ves
solutions
tige
ability
Gesellschaft
longer
Daher
parties
risk
ec@@
Markt
ß@@
Version
car
V
over@@
0
Von
interests
requirements
heart
gestellt
cu@@
Anwendung
pool
Bedingungen
ran@@
IT
friendly
mer
gemeinsamen
cht
Rück@@
Grund@@
La
cases
nature
he@@
voll
fall
ker
changes
guests
ms
developed
Nähe
min@@
bleiben
past
Sp@@
lange
competition
ig@@
ma
verwendet
efforts
ments
comes
November
erten
Grundlage
war@@
beispielsweise
themselves
events
bekannt
bar@@
K
language
10@@
ches
ging
restaurant
democracy
ach@@
Gebiet
1@@
keep
file
Durch
Interesse
hin
ziehen
freedom
force
2002
consider
ca
sprechen
Reihe
sozialen
markets
negotiations
erreicht
pe@@
Möglichkeiten
Demokratie
60
century
Ihrem
live
near
ty
visit
democratic
young
team
tu@@
Debatte
com@@
Neu@@
Or@@
ters
Bau@@
ina
strong
central
vielleicht
tern
ft
eller
upon
vier
network
kleinen
eln
peace
Ch@@
etc
ise
Herren
ni@@
funds
works
Institutionen
never
GmbH
sion
request
Abkommen
regional
Man
wirtschaftlichen
é
Po@@
ff@@
held
Her@@
wer@@
From
either
improve
go@@
April
top
sc@@
four
Berichterstatter
prices
bed
könnten
material
gemeinsame
fundamental
Gu@@
wenig
developing
though
night
Am
Strategie
zeigt
pay
verschiedene
erforderlich
ck
additional
looking
education
reform
history
verfügt
true
geb@@
date
eb@@
Auswirkungen
Presidency
event
oft
Man@@
try
ausge@@
everything
ell
danken
Hinblick
actually
appropriate
accept
seen
unternehmen
Car@@
parts
climate
ren@@
procedure
links
send
care
Verhandlungen
Russia
soon
denke
type
effect
ic@@
sub@@
helfen
mentioned
ermöglicht
beach
liegen
Regionen
Gra@@
understand
space
gegeben
created
Tra@@
Ent@@
ER@@
res@@
Lu@@
mar@@
lei@@
states
card
Dienstleistungen
spielen
meet
person
tigen
situated
Programme
receive
related
20@@
Änderungsanträge
tragen
included
share
Damen
1999
tive
cost
ling
N
Minuten
big
road
pl@@
17
designed
vo@@
einzelnen
thus
How
act
s-@@
Außerdem
bereit
Tatsache
Änderungsantrag
lead
gung
Ko@@
mu@@
är@@
idea
almost
ed@@
tung
darum
ta
living
Geschichte
gesamten
sch
besch@@
av@@
1.@@
Doch
direct
aten
early
writing
ka
hatten
users
Haushalts@@
outside
success
500
test
Zu
80
fragen
workers
according
Ri@@
ure
Tri@@
son
Schritt
sed
eh@@
dern
guarantee
aware
France
tax
majority
later
ie@@
ens@@
takes
total
wegen
hard
certainly
lin@@
table
IS@@
Pi@@
Mitglieder
Com@@
unique
ver
Kolleginnen
AG
bus
liches
doing
ative
Bereichen
$
foreign
amount
Su@@
form@@
up@@
je
book
connection
Wirtschafts@@
ner
Dis@@
hours
ways
gleichen
ph@@
200
existing
mal
features
programmes
communication
ebenso
weiteren
reach
Wasser@@
concerns
bare
Entscheidung
ell@@
pa@@
Ergebnis
jedem
bei@@
throughout
Abgeordneten
www.@@
San
Antwort
week
active
turn
leben
entwickelt
final
context
ori@@
tre@@
run
investment
gs
apply
tion@@
music
committee
Park
significant
hätte
Sicherheits@@
internationale
French
agreements
low
legen
EN@@
ari@@
program
gesch@@
relations
wichtigen
Beziehungen
initiative
tan@@
code
tet
Bu@@
gestimmt
weiß
gleichzeitig
decisions
geführt
My
took
ieren
ern@@
Vereinigten
Nach@@
reasons
Bank
Verordnung
befinden
By
konnte
across
Cor@@
Bevölkerung
concerning
although
American
AN@@
Aufgabe
impact
Government
Gruppe
ance
wa@@
Krise
Ber@@
weltweit
cher
gab
bleibt
Zentrum
ever
Bar
bekommen
und@@
Paris
-B@@
..
Blick
Unser
stra@@
enthalten
term
Bi@@
z.B.
zeigen
Qu@@
perfect
Ausdruck
17@@
Geschäfts@@
completely
meinen
Ru@@
gebracht
Entschließung
gemeinsam
lässt
center
stage
board
moment
Förderung
ders
ER
capital
Erfolg
gern
Bitte
basic
Zum
jede
mis@@
knowledge
Kontrolle
read
jobs
ass@@
ben@@
nothing
Verbindung
rates
kleine
lan@@
ad
ationen
wohl
tor
original
files
lu@@
Geld
population
Behörden
famous
kt
enn@@
internet
practice
19
professional
objectives
allows
out@@
remain
package
So@@
agricultural
fe
ard
rec@@
Erweiterung
heißt
chten
à
Let
Forschung
Seit
16@@
Einsatz
Platz
five
Turkey
Damit
walk
Court
traditional
Israel
Sa@@
ster@@
gel
includes
media
ann@@
regarding
established
gn@@
Lisbon
unseres
cks
community
tischen
body
end@@
2.@@
á@@
Since
customer
partners
richtig
Ho@@
ties
Information
member
gerne
develop
applications
Beitrag
front
English
nice
baren
zeit
web
choice
concern
values
Türkei
No@@
IN@@
reviews
fight
21
performance
Ne@@
integration
quickly
Nutzung
game
built
objective
Lösungen
II
contains
received
reports
=
Finally
Preis
Mal
enthält
wor@@
aim
Projekt
bit
Verbraucher
move
Ausschuss
fe@@
mehrere
15@@
benefit
Minister
check
Rei@@
equipment
equipped
ing-@@
Here
stop
jedes
ES
Y
{
simple
hinsichtlich
Jahres
ys
La@@
fo@@
»
sense
Verbesserung
des@@
neu
model
entire
ermöglichen
70
achieved
Liste
ges@@
holiday
Ausschusses
treatment
clean
lichkeit
verfahren
derzeit
military
lage
Umwelt@@
genommen
guest
potential
22
euro
party
demand
culture
goods
style
leading
dialogue
ps
face
va
Text
For@@
AR@@
fahren
tr@@
prevent
Ta@@
wichtigsten
Ergebnisse
Schaffung
Partner
seems
mp@@
fer
zusammen@@
Mi@@
eu@@
ES@@
closed
ity
fest
consumers
hotels
Therefore
amendment
falls
lack
focus
mm
indeed
Mor@@
Gelegenheit
London
ba@@
note
return
ganze
Darüber
Verwendung
AS@@
zurück
schriftlich
dar@@
Vor
ales
Per@@
wobei
IT@@
ah@@
levels
ganzen
Wei@@
fördern
verbessern
27
agreed
answer
völlig
successful
verfügen
mind
fin@@
image
ant@@
floor
verwenden
mean
Affairs
cor@@
fair
size
co
scher
tig
asked
added
enen
Änderungen
increased
enable
coming
Kar@@
relevant
carried
er-@@
eigene
iert
bestehen
Notwendigkeit
auszu@@
cken
kte
park
einge@@
job
ones
sing
90
W
Some
rund
ST@@
sites
ces
tz@@
sustainable
ry
submitted
presented
fest@@
o-@@
soziale
enter
neben
everyone
shown
entwickeln
tungs@@
matters
au
}
großer
il
principles
rest
RE@@
ändern
Wort
lose
Zeitpunkt
Q@@
meinem
Angebot
treffen
governments
computer
Themen
ana
Woche
E-@@
re-@@
san@@
guten
server
angenommen
Central
press
har@@
AT@@
beginning
May
Initiative
anzu@@
pages
recently
eg@@
East
shows
Vi@@
places
ste@@
gehören
August
hand@@
Mitarbeiter
choose
sorgen
Article
pp@@
Interessen
ier@@
wirtschaftliche
gar
Bild
Du@@
balance
12@@
anderer
els
add
direction
Server
PC
rich
än@@
ats
zunächst
possibility
aspects
considered
effects
suchen
isches
kl@@
tische
tatsächlich
South
Do@@
gleich
promote
nimmt
Barcelona
lines
&gt;
Now
details
Regierungen
einzu@@
23
äußerst
ship
series
June
higher
Gesundheit
commitment
Russland
det
office
opportunities
materials
Of
IC@@
joint
AL@@
setting
Einführung
cht@@
ast@@
double
actions
comp@@
pressure
gas
gewährleisten
travel
perhaps
Amsterdam
ks
id
highly
Me@@
Umwelt
Dabei
speak
prepared
complex
weise
AC@@
systeme
halte
mat@@
reduce
fünf
Japan
Design
Mit@@
verbunden
br@@
forms
lang
Auswahl
Steuer@@
bestimmte
increasing
First
land@@
ore
reached
ving
Booking.com
Land@@
Erachtens
Organisation
ment@@
fordern
easily
später
thanks
Spain
Bekämpfung
gemäß
National
Anzahl
tete
lediglich
priority
pu@@
kosten
safe
bisher
previous
enlargement
search
Tage
half
Erfahrung
Web@@
versuchen
Wert
creation
accommodation
efficient
America
nuclear
gesamte
Au@@
tic
latest
whose
maßnahmen
Mitglied
Fahr@@
Gästebewertungen
status
Team
len@@
response
fallen
funding
14@@
Umgebung
Fortschritte
300
hal@@
somit
ender
Markt@@
external
link
Kampf
providing
came
inc@@
Convention
ano
protect
behind
Also
innovative
ations@@
supported
Familie
Aktivitäten
dy
sive
bestimmten
Spiel@@
Anfang
stark
voll@@
Dinge
en-@@
assistance
ven
hohen
UN@@
meines
por@@
capacity
gesetzt
video
atmosphere
Kultur
Herzen
consumer
Frankreich
versch@@
Bestimmungen
decided
ators
Linux
pres@@
commercial
limited
0.@@
gives
partner
produced
City
instrument
supply
Integration
pf@@
Während
exchange
Kommissarin
Zahl
13@@
regulations
Industrie
al-@@
Prozess
Pre@@
cause
leave
ess
ation@@
net
tieren
col@@
eng@@
Management
innen
DE
charge
ying
El@@
bringt
Sprache
solchen
ausgestattet
sta@@
wer
heit
Fach@@
ang
Wahl
remains
weiter@@
apartment
Gäste
civil
function
eri@@
industrial
Vorschriften
Meer
Mai
berg
genden
sound
option
Bel@@
ort
Pa@@
Dialog
ton
ourselves
pleased
nie
zweite
British
independent
möglichkeiten
außerdem
Punkte
Africa
follow
Wasser
obwohl
oil
ser
H
zahlreiche
stri@@
produce
23@@
Italy
Raum
ist@@
geschlossen
ban@@
discussion
Erklärung
ve@@
enz@@
Hand
leider
aufgenommen
erster
dadurch
gten
Landes
teile
uses
Juni
He@@
property
instruments
1998
creating
steps
Produktion
scheint
restaurants
í@@
ll@@
ies
1.
sto@@
ro
legislative
Stelle
Entscheidungen
Ukraine
Systems
purpose
relation
lagen
weder
Sta@@
frei
S-@@
fishing
mein
organisation
similar
Mehrheit
gre@@
4.@@
December
Sozial@@
distribution
sts
Welt@@
hohe
airport
Web
Iran
Position
To@@
below
gl@@
leicht
summer
Einzel@@
former
the@@
popular
weisen
tem
Am@@
bezüglich
regards
bau@@
Kosovo
message
procedures
Handel
met@@
Daten@@
Lei@@
structure
insgesamt
tim@@
source
Nur
tiger
Hoch@@
Bereiche
einschließlich
EC@@
sm@@
bad
ese
stability
movement
P-@@
compromise
island
rule
EL@@
document
allowed
brought
leisten
programm
fu@@
gro@@
af@@
variety
Gewalt
van
anti@@
Entwicklungs@@
ground
Nor@@
Euro@@
credit
tliche
ente
«
Aufmerksamkeit
paid
Western
Hand@@
einzige
Anforderungen
ade
can@@
don
Wachstum
written
Gefahr
Spiel
conference
tell
UN
Lebens@@
instead
zweiten
setzt
activity
Natur
Por@@
helpful
construction
dung
provisions
Insel
benötigen
Landwirtschaft
distance
Küche
Projekte
35
mobile
Stunden
Strand
vergangenen
January
Services
Investitionen
ili@@
damage
ther@@
Beschäftigung
ism
ler@@
Te@@
sieht
agenda
str@@
payment
,000
Anfrage
gelten
dr@@
tiert
statement
lau@@
führung
Ha@@
film
criteria
eingesetzt
giving
interesting
started
bri@@
study
Dezember
contribution
Ti@@
lung
aufzu@@
lies
dra@@
durchgeführt
quiet
ca.
Frühstück
click
ktion
sur@@
Meine
Folgen
zei@@
Reform
Sk@@
hoch@@
Energie
transparency
tool
Standpunkt
bevor
schließlich
March
require
ful
Regeln
genießen
Diskussion
Transparenz
pen@@
violence
ess@@
download
bra@@
Gemeinschafts@@
documents
modified
Today
ß
kten
effort
General
extra
word
we@@
operation
fa@@
October
Wettbewerb
wichtiger
platz
pass
item
emp@@
gar@@
Berichts
konnten
eigentlich
ines
europäischer
ill@@
Many
Gar@@
Gründen
Room
sel@@
tel@@
chte
treten
Spanish
task
Ju@@
York
express
verstehen
neuer
bathroom
Jahrhundert
ss@@
Rights
getan
zer@@
Furthermore
equal
huge
draft
Grenzen
sagte
U
OS
ble
begrüße
types
base
parking
immediately
ju@@
erk@@
Auffassung
Sal@@
erwarten
Zur
Gi@@
teilen
Museum
Portugal
pri@@
Freiheit
section
März
Person
Personal
Präsidentschaft
Villa
Fehler
benefits
integrated
our@@
happy
aktuellen
wenige
sei@@
tools
log@@
labour
During
aufge@@
Bad
Sache
applied
nor
ums
une
Bildung
reading
ären
tro@@
Republic
Your
mittel
avoid
ino
morgen
Debian
alternative
Development
Ba@@
kurz
build
apartments
Linie
Nationen
ssen
Du
became
Italian
gest@@
elements
aler
größten
consequences
tur@@
allein
öffentliche
beitragen
solidarity
colleagues
met
review
app@@
Although
box
Gen@@
kan@@
assi@@
je@@
weg
Fällen
Bei@@
gende
Center
Heute
goes
ak
Bürgerinnen
entsprechenden
War@@
CD
verb@@
00@@
digital
behandelt
Do
challenges
bs
requires
poverty
drive
billion
erneut
ls
Dateien
July
concept
sofort
stimmen
finally
Ansatz
analysis
six
zehn
got
Amendment
werk
fl@@
useful
implemented
berücksichtigt
1997
fra@@
angesichts
Öffentlichkeit
are@@
del@@
Besch@@
elections
expect
Preise
WTO
school
Bemühungen
zone
persons
illegal
Kur@@
bau
eher
Bürgern
ok@@
Club
Tur@@
bre@@
kt@@
talk
congratulate
lic@@
train
efficiency
San@@
draw
diejenigen
erfolgt
Natürlich
3.@@
growing
stell@@
forces
Sinne
West@@
28
minimum
conflict
26
Januar
Wel@@
hr@@
speed
FR
class
Lissabon
employees
daily
Flug@@
establish
reality
Tagesordnung
tomorrow
verhindern
Rechtsvorschriften
zwei@@
practical
hinter
monitoring
self-@@
St.
Bilder
@
Tat
ski
genannten
bank
Kraft
bl@@
eben
B.
tionen
numerous
sports
official
Ku@@
offered
ron@@
sent
saying
North
Oktober
Präsidenten
ständig
stellung
wanted
Änderung
late
freien
vers@@
zed
organisations
Thank
processes
carry
Party
friends
Lassen
IM@@
Flughafen
hätten
highest
historical
Centre
trans@@
crucial
Chi@@
MP@@
village
Höhe
voting
ihres
lower
mann
terrorism
Go@@
richtige
Jo@@
technischen
größte
Groß@@
Firma
Druck
chen@@
Nr.
geworden
gefunden
pan@@
nahe
fre@@
vergessen
Mediterranean
Business
Behandlung
erungs@@
gend
largest
Monaten
secure
Urlaub
Wi@@
lernen
45
Mal@@
tel
maximum
offering
ke@@
Zweitens
reduction
cli@@
Macht
Restaurants
vertreten
lives
lesen
farmers
Ben@@
ör@@
alt
morning
besondere
Gesundheits@@
rise
volle
frage
waste
mm@@
paar
fine
death
sport
transfer
weeks
comprehensive
Is
Ste@@
Finanzierung
learn
beyond
Op@@
changed
mel@@
gleich@@
bel
Si@@
operating
tungen
caused
star
versucht
Angelegenheit
Tagen
schaft
mal@@
See
email
abzu@@
options
relating
poor
bin@@
Inhalt
RO@@
tik@@
Atmosphäre
äre
ideas
US-@@
Verkehrs@@
Sicht
reference
schließen
wählen
danke
Basis
phone
historic
Datei
5.@@
technologies
warum
verantwortlich
rä@@
Directive
starting
Tor@@
king
anderem
Ni@@
kre@@
Preis@@
Musik
Secondly
Aspekte
Microsoft
zahlen
University
sches
überhaupt
wieder@@
interested
Mittel@@
gesehen
Hotel@@
news
vollständig
ite
Aufenthalt
methods
CO@@
minute
lösen
genutzt
sometimes
extent
verpflichtet
folgen
ce@@
Forschungs@@
shopping
Spanien
sectors
sis
Konferenz
plans
stelle
erfüllen
languages
Even
barkeit
accordance
stands
wine
Im@@
Den
tors
denken
bes@@
entsprechend
gan@@
Ressourcen
anything
stre@@
mention
alone
begin
raum
ris@@
Ra@@
yp@@
jeweiligen
fol@@
gewesen
Viele
geschaffen
Selbst@@
player
probably
ence
oben
published
ya
sor@@
Pal@@
method
qui@@
Benutzer
Italien
Schritte
rel@@
ready
businesses
Energie@@
1996
absolutely
schützen
braucht
gr@@
machine
Ireland
hold
cut
A-@@
era
AD@@
ou
tsch@@
bur@@
häufig
Ober@@
port
endlich
Wochen
Conference
raised
stets
beste
Beginn
Col@@
clients
Republik
Juli
round
fun@@
edi@@
Allerdings
Berichterstatterin
vol@@
hoch
plant
scientific
Fi@@
con
accession
Public
LE@@
Einige
flo@@
modernen
implement
star@@
Erfahrungen
Gr@@
motion
ó@@
tt@@
sions
erfolgreich
sales
1,@@
Dazu
Gruppen
Schwierigkeiten
challenge
players
Ger@@
Vertrauen
2-@@
Funktion
cs
child
Airport
Arbeitnehmer
affected
release
scope
Sport@@
Min@@
Vergangenheit
powers
bessere
fish
street
Werte
außerhalb
Kinder@@
West
erwartet
chance
Unter
zahlreichen
accepted
Kor@@
ness
doubt
anders
1-@@
z.
ungsp@@
bitten
Tre@@
separate
ismus
Hinsicht
fields
Only
wert
worked
worldwide
fil@@
sektor
enti@@
adopt
privaten
Einrichtung
Bal@@
Herausforderungen
selection
Mag@@
long-term
Fund
Luft@@
processing
cal
trying
Austria
ics
ktionen
lin
welches
erlaubt
comfort
nu@@
genug
advantage
hält
walking
Arbeitsplätze
While
persönlichen
on-@@
neues
Parteien
cities
thought
hören
yer
Ö@@
Dann
Bundes@@
ausschließlich
Wohn@@
flexible
win@@
justice
garden
reichen
lost
map
Instrument
ür@@
ini@@
erklärt
folgt
zumindest
month
ality
begrüßen
Wann
images
Fest@@
innovation
Solidarität
vel@@
Wahl@@
sitting
kennen
EC
Moreover
annual
demokratischen
head
ord@@
Produkt@@
Sitzung
Bri@@
enz
Falls
29
alte
e-mail
sting
Angelegenheiten
übernehmen
sum@@
ini
letzte
proper
Har@@
Not
deutschen
negative
cally
ide@@
Erstens
initiatives
Red
OR@@
join
erinnern
Sonder@@
Praxis
gender
RA@@
ga@@
ff
Protokoll
wahrscheinlich
ages
automatisch
Ausschuß
Technologie
200@@
intended
talking
allgemeinen
loss
overall
vorgeschlagen
Stadt@@
vital
mes
menu
suitable
gekommen
Gebäude
tlichen
Opfer
entscheiden
Annahme
Aufgaben
wal@@
borders
laufen
cover
historischen
31
placed
ets
Vertreter
Zusammen@@
President-in-Office
folgenden
Verpflichtungen
son@@
bilden
30@@
Free
Neben
despite
teten
demands
Anstrengungen
²
32
sechs
Handels@@
stress
Spieler
approved
EM@@
schwer
Agenda
zug
Mu@@
zer
kam
expressed
5-@@
target
influence
bewusst
vollen
green
Fre@@
comments
IS
games
namely
ga
Armut
committed
Ser@@
getting
Organisationen
Folge
representatives
medi@@
zudem
heard
strategic
sal@@
correct
Nun
benutzt
bro@@
Karte
Sen@@
eindeutig
PL
pr@@
running
cohesion
Ihres
Denn
dan@@
ette
Fo@@
Kunden@@
More
Enterprise
Security
Kriterien
fac@@
calls
installation
contract
Systeme
stu@@
75
traffic
Its
maintain
Staats@@
größere
Wer
improved
Computer
Gegen@@
vorgelegt
Val@@
beide
abge@@
etc.
unbedingt
Kultur@@
Ac@@
swimming
trotz
ier
Frieden
zusätzliche
mountain
ture
administrative
amp@@
freie
mainly
Wunsch
hen
terrace
ien
ack@@
darstellt
geh@@
cur@@
Natur@@
usually
25@@
structural
critical
iger
automatically
´
reforms
Le
sierung
na@@
rei@@
Google
decide
Hei@@
mor@@
yourself
Binnenmarkt
usw.
lat@@
evening
visitors
bald
ik
Costa
tor@@
Star
tabled
Zustimmung
prüfen
conclusion
sicherheit
warm
gesprochen
Lan@@
Wein@@
gelegen
circumstances
families
bil@@
prä@@
Obwohl
­
moderne
ierung
planning
una
normal
D-@@
Staat
SP@@
Pu@@
cre@@
Funktionen
gte
protected
ET@@
UK
hol@@
Produktions@@
neu@@
dringend
Cas@@
Vereinbarung
super@@
2020
Berg@@
Ist
freuen
gleiche
erkennen
encourage
nationale
supports
relationship
priorities
ku@@
in-@@
ss
überzeugt
Falle
ich@@
unemployment
beginnen
Fe@@
photo
reduced
emissions
Rooms
contribute
Dr.
Privat@@
stable
opening
sted
sources
crime
selbstverständlich
Informations@@
Außen@@
erter
ban
berücksichtigen
border
ai@@
Kunst@@
Gesamt@@
jo@@
serve
Da@@
El
competitive
hinweisen
Verwaltung
covered
cra@@
seines
rechts
kaum
verfügbar
heutigen
wing
Kre@@
entsprechende
signed
rechte
Leute
Kom@@
effectively
Bur@@
3-@@
Station
mission
tics
ably
tlich
industrie
oren
Site
union
stärker
confidence
cker
Ca@@
agriculture
wünschen
SA@@
sage
lich@@
Grand
gebiet
bet@@
zation
currency
delivery
Reise@@
ensuring
zeiten
ear@@
offen
Dar@@
Hause
erwähnt
Ur@@
Online-@@
anti-@@
larger
Code
exist
acc@@
financing
gew@@
functions
ele@@
Gipfel
introduced
Haushalt
generation
Each
iz@@
Inhalte
Sektor
Terrorismus
entspricht
sa
hoffen
°
votes
ast
format
Durchführung
screen
gerecht
senden
ology
lie@@
Sol@@
animals
discuss
sec@@
ish
pleasant
increasingly
mindestens
ole
detailed
gezeigt
verkehr
unterschiedlichen
victims
schutz
US@@
Pri@@
infrastructure
Mat@@
tal@@
sicherzustellen
electronic
Wahlen
Ban@@
regime
aktuelle
mehreren
teil
geändert
kti@@
Why
Afghanistan
Mitteilung
prozess
g-@@
Russian
Anerkennung
tw@@
laws
Schließlich
transparent
ca@@
Anti@@
legt
akzeptieren
Vo@@
01
6.@@
students
E-Mail
Chinese
hu@@
defined
tru@@
Bus@@
leg@@
extensive
getroffen
goal
discussed
beds
Pan@@
rich@@
banks
Zei@@
sha@@
äu@@
enten
erzielt
plants
übernachten
az@@
rein@@
kom@@
Krieg
Produkten
Reformen
min
ft@@
ität
Fu@@
Vorteile
stimme
speaking
tation
fahr@@
manner
limit
served
onen
purposes
amerikanischen
inn@@
else
administration
wesentlich
ical
DVD
technische
Stabilität
discussions
tourist
bestehenden
ously
sign
participation
Win@@
budgetary
alität
feature
schaften
Idee
assessment
wrong
understanding
dri@@
sation
Bor@@
zes
linked
Technologien
ley
reich@@
Nations
sufficient
400
tour
Qualitäts@@
ws
elt
developments
Office
measure
managed
langen
stated
erfahren
cap@@
....
ational
glauben
#
benutzen
Zunächst
Cre@@
Bre@@
ada
umgesetzt
positions
rural
specifically
endes
exactly
born
eter
risks
partnership
Volk
pe
appear
festgelegt
Zudem
ün@@
Bra@@
aktiv
love
Produkt
Em@@
richten
gelegt
notwendigen
Hu@@
post@@
leaders
ergreifen
ns
kommenden
ften
Ä@@
Kern@@
ir
Br@@
powerful
Schul@@
sol@@
enterprises
Just
Standard
Anwendungen
produ@@
erungen
bedarf
Hel@@
ures
Agreement
haus
introduction
fellow
Then
wants
Vertrags
entry
worth
pol@@
Fra@@
las
sion@@
collection
char@@
spacious
arbeitet
CH@@
dienen
finanziellen
whom
EL
regular
Cal@@
guidelines
ral
lä@@
Fer@@
siehe
paper
eingerichtet
says
aimed
j
klicken
lungen
1995
door
warten
shower
ON@@
discrimination
Nutzen
Indeed
played
siert
möglicherweise
möglichen
began
mark
Sti@@
wo@@
Verfassung
Einrichtungen
Abschließend
precisely
zuletzt
Z
tic@@
tä@@
erfüllt
IN
za
wonderful
laden
besonderen
Milliarden
wenden
kitchen
ice
Apartments
closely
Test@@
Lin@@
bestimmt
represents
Tier@@
stoffe
work@@
back@@
considerable
opened
referred
Chance
becoming
Kontakt
fri@@
ef@@
Wettbewerbsfähigkeit
alisierung
founded
Swiss
happen
otherwise
Über
expected
Osten
cing
multi@@
camera
jederzeit
De
ren
fan@@
tions@@
represent
angezeigt
ki@@
thousands
Haltung
anischen
ents
länder
testen
selected
UR@@
strengthen
ved
scale
immigration
sicherlich
nor@@
ase
properly
optim@@
arbeit
stadt
Menschenrechts@@
police
Ausbildung
syn@@
Greece
ame
vermeiden
è@@
ßen
Suche
Iraq
track
DA@@
C-@@
handeln
Standards
Gel@@
Straße
val@@
zeit@@
Besuch
ple@@
programs
Augen
cal@@
Partei
Prozent
teil@@
trägt
LA@@
shop
Social
Mark@@
stand@@
facing
earlier
At@@
deten
Kal@@
50@@
geeignet
dient
unver@@
gs@@
ars
anderes
&apos;ll
Unfortunately
supporting
white
People
Schutz@@
PT
Monate
Sea
markt
cia
na
Roma
rent
Leider
tn@@
institutional
rit@@
Mc@@
Policy
Instrumente
globalen
Can@@
Vielen
Nicht
telephone
rü@@
improving
metres
Rec@@
lt
verfolgen
coordination
150
lar
erzielen
spe@@
Click
networks
Medien
provision
likely
fresh
Mitgliedstaat
Sommer
ek
sets
stat@@
fla@@
reception
com
Berichte
medical
schreiben
verbessert
Zeichen
went
plus
nachdem
marketing
inside
spend
Fin@@
vorgesehen
wahr@@
Nachfolgend
Plan
euch
Regelung
Kenntnis
betonen
Installation
gkeit
Kindern
hear
Anspruch
operations
gelangen
zing
funktioniert
stärken
Green
remember
Nord@@
degree
shi@@
klare
connected
co-@@
Bas@@
record
erg@@
uni@@
fisheries
fahrt
difficulties
daten
followed
Warum
save
acts
gener@@
voller
rat@@
bal@@
cul@@
Energi@@
Initiativen
vari@@
DI@@
February
Abgeordnete
dlich
Webseite
Human
purchase
Dra@@
broad
Frankfurt
han@@
entschieden
Wieder@@
reasonable
erstellt
Vielfalt
Sprachen
Ka@@
oo@@
informed
hour
element
Nieder@@
Verwaltungs@@
tradition
Most
24@@
gang
poli@@
om
Tätigkeit
losen
ausdrücklich
Klein@@
components
lig
cas@@
außer
presidency
client
animal
erenden
items
erhöhen
Forderung
Not@@
net@@
Jetzt
high-@@
möglichst
path
far@@
IP
refer
ay
stei@@
dealing
shops
zentrum
schutz@@
elegant
e.g.
Familien
applies
playing
informieren
person@@
ara
http
Economic
ration
vision
Innovation
aff@@
elles
politischer
jeweils
She
Bild@@
Stimme
generally
parliamentary
trust
ev@@
Medi@@
ach
IL@@
consideration
Pol@@
entirely
Abschluss
mark@@
bodies
bes
Kan@@
Wege
gefordert
liber@@
tourism
welcher
teilweise
att@@
experts
fällt
beschlossen
Bet@@
buy
competitiveness
cards
Because
vorhanden
cher@@
wären
wollte
Veränderungen
nis@@
income
hel@@
konkrete
werte
unbe@@
summit
ckt
entweder
Meter
dagegen
buildings
Vol@@
blo@@
houses
Menge
Wor@@
Switzerland
fung
richtigen
winter
genannt
ction
Stand
actual
NATO
exclusive
freue
High
Klicken
Gro@@
Brussels
mittel@@
essen
well-@@
Leistungen
prior
ka@@
ig
spielt
lichem
Dienste
Vereinten
average
rop@@
don@@
benötigt
combat
ised
select
nisse
fort@@
Familien@@
spirit
season
bek@@
Breakfast
Angaben
erfolgen
fixed
Einfluss
speech
gave
Video
gem
thinking
Garten
spar@@
speziell
sam@@
besuchen
War
le-@@
database
Firstly
Transport
I-@@
authority
meetings
jene
Schweiz
gewährleistet
hor@@
ersch@@
condition
seem
Cam@@
ID
Super@@
display
vehicles
ement
Konzept
durchaus
Post@@
lö@@
Gebieten
tures
flexibility
Sub@@
mente
Antrag
Arbeiten
Once
coffee
pul@@
presence
bedingungen
7.@@
Währung
stock
Char@@
CA@@
cy@@
ha
Sh@@
numbers
imp@@
ße
ll
finanzielle
Gesch@@
Met@@
India
cuisine
digen
aspect
Best
difference
täglich
darunter
sun@@
Tran@@
origin
Middle
wider@@
Teile
Ausgaben
machines
Dennoch
pat@@
lokalen
Ski@@
eingehen
Gal@@
hervor@@
humanitarian
stan@@
Research
propose
Zeitraum
easier
burg
stellte
wood
Ü@@
ass
Sehr
ado
lands
Terrasse
Board
Spa
Vergleich
plan@@
estate
Guest
33
Stellungnahme
Comp@@
tisch
ik@@
inen
ME@@
erstellen
tät
med
Modell
sse
wenigen
zentrale
rat
darstellen
Einhaltung
ti
konzentrieren
erleben
seriously
aims
nt
peaceful
availability
Wer@@
sieren
Ak@@
ungs-
permanent
appears
feld
Ziel@@
acht
typical
myself
establishment
stone
Hauses
fied
mü@@
Herausforderung
95
spor@@
Pap@@
Engagement
Very
flu@@
geleistet
überprüfen
angeboten
Komfort
ey
absolut
Asia
tätig
fund
reservation
ists
detail
hot
Programms
fun
entstehen
differences
dliche
geschehen
experienced
2011
isch@@
ark@@
cat@@
schwierig
fs
Zeit@@
diskutieren
structures
Forum
told
dennoch
zen@@
Bürger@@
picture
uren
tere
Zweifel
Zeiten
Zweck
His
Prä@@
duty
ware
Tro@@
practices
Gas@@
MA@@
Achtung
promoting
charged
producers
unacceptable
Plat@@
Private
stes
Einigung
Internet@@
erklären
implementing
Herstellung
gabe
character
forget
defence
spon@@
becomes
Dec@@
ah
haft
és
ordnung
buffet
Worte
Res@@
carefully
sides
Paket
ye
unterschiedliche
Gleichzeitig
inform
Werk@@
ato
Druck@@
id@@
Beitritt
feststellen
fying
hon@@
kur@@
fel@@
Irish
Besucher
Fonds
äl@@
balanced
Czech
criminal
attempt
Februar
0-@@
unabhängig
concrete
Wal@@
introduce
Kunst
einiger
recommend
Aspekt
Fischerei@@
reducing
break
nächste
associated
ged
unten
spent
erende
achten
All@@
Forderungen
ently
veröffentlicht
übrigen
gewinnen
ack
lia
Name
zimmer
starke
Aufnahme
Film
ants
gek@@
gruppe
weight
Regel
hab@@
Des@@
booking
adoption
schönen
sagt
session
Prioritäten
Stellen
erscheint
Ap@@
Madrid
Download
Kingdom
grounds
ahead
statements
Geb@@
ships
courses
Golf
98
ths
gruppen
happened
Gemeinsamen
Dokument
zo@@
hingewiesen
improvement
Spezi@@
impossible
post
Liefer@@
ire
Pas@@
flow
models
threat
uri@@
chs
reicht
dangerous
dro@@
Belarus
respond
anyone
agencies
phase
si
web@@
gestalten
packages
Tu@@
angesprochen
99
Christian
According
Lesung
advanced
Analyse
guarantees
AB@@
Stra@@
Auto
läuft
Status
monetary
geln
core
sign@@
won
advance
lungs@@
igen
Wissen
regionalen
od@@
Rede
arten
domestic
fle@@
tt
Links
Mitte
Sorge
trip
48
k-@@
shared
continued
south
Bro@@
arrival
Geschäftsordnung
Meiner
folgende
so-called
halt
Arbeitslosigkeit
studies
betrachtet
oc@@
Klima@@
Geld@@
rin@@
analy@@
installed
names
ko
dete
Great
verfolgt
changing
kulturellen
Entwicklungen
uner@@
ination
unterstütze
suite
ends
Agrar@@
unfortunately
calling
ched
Irak
genuine
ian
ours
gem@@
immediate
Stu@@
gri@@
instance
Problemen
geschrieben
Santa
ba
Multi@@
empfehlen
persönlich
gene
Stärkung
Regelungen
dank
ländern
Kno@@
Rechnung
34
Irland
ingen
heraus@@
sensitive
gain
Mess@@
resort
pictures
cars
Tour
Hor@@
obtain
Österreich
Poland
failure
gutes
keeping
kosten@@
Großbritannien
Kommunikation
Vielzahl
ine@@
Online
strongly
voice
gegenwärtig
gers
wishes
debt
Hintergrund
ath
Every
ater
reg@@
consumption
cking
Del@@
learning
Richtlinien
politics
keyword
relax
vorliegenden
zz@@
sischen
geschützt
erforderlichen
raise
gef@@
ang@@
tage
Street
combination
umfasst
spiel@@
print
lo
amen
anlagen
eingeführt
evidence
Cap@@
win
,@@
Mis@@
greifen
clo@@
cke
profitieren
Arten
einsetzen
sale
Griechenland
trading
air@@
liebe
possibilities
pre-@@
Sie@@
article
36
Star@@
Überwachung
rus@@
kaufen
fore@@
passed
John
Priorität
sort
pla@@
Beschäftigungs@@
comment
unless
Sport
positiv
Trade
contain
ona
garantiert
recognition
fähigkeit
fire
registered
ausreichend
elected
attractive
truly
weiterer
keinerlei
ehr@@
beaches
cy
relaxing
AM@@
4-@@
devices
tasks
signal
Europeans
Sur@@
Abend
verlassen
fordert
participate
vis@@
Health
ker@@
ery
ited
finance
listen
wel@@
district
Partnerschaft
comm@@
Open
ory
Betriebs@@
wall
Can
stein
rück@@
allowing
Mac@@
aufmerksam
ct
miteinander
hands
sionen
sichern
seek
Bewertung
exc@@
install
län@@
Justice
Grenz@@
einander
kept
glich
felt
completed
ely
les@@
ella
dor@@
reliable
nahme
seite
television
My@@
steigen
gegenwärtigen
ISO
color
definition
erhält
Elemente
figures
opposition
tten
demokratische
führte
heiten
lie
Mer@@
released
Pe@@
translation
zufrieden
wirtschaft
--
dre@@
sters
enables
spricht
Ja
ologie
bit@@
urgent
ki
Fuß
Fortschritt
Verpflichtung
totally
37
off@@
Open@@
nearby
Net@@
ica
gegründet
sli@@
pra@@
sämtliche
Bedürfnisse
Hersteller
meters
button
lets
werke
dec@@
dungen
God
sum
Angesichts
closer
Mio.
sou@@
ate@@
skills
ID@@
England
PHP
Adresse
schul@@
komplett
Gesetz
bear
ring
Such
fälle
Another
Universität
window
Indi@@
lig@@
Ei@@
Nevertheless
tests
himself
Voll@@
Jeder
Entwurf
ner@@
Association
absolute
asylum
großes
manage
Mas@@
de-@@
river
membership
club
sten@@
continues
beteiligt
1994
System@@
election
Formen
Betrieb
interface
regi@@
Air
Sehenswürdigkeiten
ziert
African
tiges
gebaut
2.
groß
Stil
spezielle
garantieren
Afrika
convinced
firm
insurance
Trans@@
Moment
Hal@@
umfassende
Entschließungsantrag
Mitteln
Lie@@
Verkehr
ECU
asi@@
territory
mehr@@
accessible
nationaler
gelöst
exercise
conclusions
bas@@
Player
Erklärungen
welt
Beschreibung
einfache
größeren
ising
Are
offensichtlich
zeichnet
Maße
surface
storage
führenden
economies
mental
mail
ulation
update
besitzt
Sinn
eck@@
Jahrhunderts
wesentlichen
described
ash@@
Pra@@
Inn
surrounding
finde
länger
enormous
MO@@
combined
ancient
architecture
controls
religious
Absatz
65
Brüssel
Dom@@
ertes
tend
Agentur
600
Nacht
drawn
announced
Prinzip
Kirche
ty@@
Wa@@
stattfinden
books
Cro@@
Bio@@
schöne
granted
rufen
überall
zeichen
honourable
ständigen
arian
forced
cle@@
Zwei@@
court
nom@@
bars
payments
werk@@
Leistung
dad
device
unable
export
trag@@
solcher
bath
standing
Pakistan
mittels
dé@@
oh@@
chi@@
Süd@@
greatest
ige
commitments
remind
Gei@@
danach
mati@@
&apos;re
rightly
SO@@
Note
extended
kostenlos
AG@@
ambitious
As@@
mögliche
bor@@
guide
fear
sta
beginnt
Kraft@@
Ideen
bestätigt
expensive
wasser@@
ingly
moving
Polen
hergestellt
Gründe
ath@@
Fran@@
write
individuals
aren
rechtlichen
beinhaltet
tens
Men@@
establishing
desire
organised
übertragen
Last
Mann
obviously
candidate
cm
Größe
oni@@
holidays
lag
institution
s.@@
internationaler
brand
advice
compared
Barroso
Beteiligung
Globalisierung
monitor
advertising
Pat@@
Umfang
sonst
Treffen
Spe@@
Märkte
Home
one-@@
leistungs@@
leader
asking
Fl@@
sun
End@@
bt
Turkish
onto
Unterkunft
Plan@@
istischen
stehenden
Ki@@
d.
port@@
technik
reisen
hom@@
gelungen
Empfehlungen
valid
spending
piece
Seine
furnished
Uni@@
pos@@
initial
lige
Aktionen
perspective
disease
l-@@
paragraph
Kompromiss
Eastern
informiert
kers
IR@@
ering
w-@@
Gast@@
beachten
dedicated
sho@@
wirken
tly
entsprechen
tom@@
contrary
iti@@
mag
failed
nis
entitled
Rot@@
factors
black
che@@
800
pal@@
railway
abgeschlossen
punkt
schi@@
cri@@
middle
assen
Netherlands
zusätzlich
Technik
binding
Gebiete
coast
stor@@
contents
vier@@
einverstanden
engine
Regulation
Flexibilität
achieving
vit@@
9.@@
Sil@@
limits
französischen
register
haften
Tradition
schlagen
targets
Prime
speziellen
colleague
AL
band
ological
luxury
JavaScript
mb@@
Innen@@
zeu@@
obligations
Manager
á
55
Control
background
reden
route
cl@@
dat@@
claims
rechten
Beihilfen
38
dienst
host
campaign
sobald
Worten
nennen
recommendations
Grundsatz
-F@@
istische
medium-sized
convenient
Data
gegangen
memory
Durch@@
neither
bli@@
Eindruck
older
Fraktionen
attractions
MS
zählen
contained
ion
Welche
stic
expenditure
Lam@@
gehalten
Musik@@
guter
outcome
tried
laid
platform
42
perfectly
Resort
Eing@@
betrachten
erfordert
chosen
Option
prevention
anten
Anteil
daraus
ically
führ@@
geschieht
fall@@
attack
dly
alter
Bildungs@@
Methode
maintenance
Schlüssel@@
rau@@
Rom@@
geöffnet
Haup@@
dy@@
dos
h.
Europäer
Kenn@@
Hinweis
Fotos
flight
vorgeschlagenen
atory
art@@
Casino
tier@@
situations
Dor@@
Foreign
Mitgliedern
Yet
acceptable
unto
stations
Ereignisse
Ter@@
to-@@
betroffen
Rules
bul@@
square
ances
existence
relativ
constantly
promotion
wind
Aufbau
Thus
yesterday
Niveau
kes
mechanism
pun@@
ick
Kat@@
zung
verloren
fern
Motor@@
continuing
Patienten
operate
Hol@@
wil@@
ligen
sem@@
TR@@
Hi@@
Verständnis
berei@@
equality
erhöht
advantages
Hamburg
betroffenen
para
Studio
Hin@@
08
Grunde
starken
science
allgemeine
beauty
Anlagen
Wirkung
museum
Voraussetzungen
festgestellt
Aussicht
successfully
wunder@@
agency
tin
setzung
etz@@
ports
Beim
Sprach@@
Lake
ue
Far@@
ined
val
Klimaanlage
weapons
Kritik
vehicle
Minutes
water@@
0,@@
legung
an-@@
Altstadt
Dem@@
hof
bildung
intervention
We@@
Ã
Pen@@
Mindest@@
Summit
stoff
fach@@
Gesetzgebung
fit
28@@
zuvor
obvious
discover
te-@@
saw
09
Greek
Kl@@
sell
Botschaft
putting
tig@@
conclude
seh@@
chan@@
testing
Ir@@
Those
intensive
deliver
Weitere
fy
alismus
corporate
hauptsächlich
Wettbewerbs@@
7-@@
kraft
qualified
nachhaltige
dimension
unit
yst@@
Ost@@
Prüfung
adequate
factor
Any
fonds
texts
ands
Foundation
Versch@@
nations
organization
sel
satz
squ@@
aci@@
pointed
Vienna
Dimension
Bedarf
Vertrags@@
Kontroll@@
ining
waiting
Deutsche
bahn
kannst
straße
Bis
96
Doppel@@
browser
britischen
consistent
Tit@@
Risiken
Realität
ON
TH@@
tal
wagen
Meeres@@
Nutzer
planned
mobili@@
8.@@
ero@@
approximately
tar@@
2,@@
capable
fen@@
manchmal
vers
indi@@
Indien
schafts@@
Zahlungs@@
Mel@@
expression
someone
goals
eigen@@
tional
fication
karte
produktion
alised
Both
listed
Gegenteil
causes
compliance
species
Phase
regeln
touch
trifft
Unternehmens@@
las@@
registration
EF@@
responsibilities
National@@
persönliche
Palace
Teilen
ön@@
07
ek@@
x-@@
versions
ía
Überprüfung
evaluation
bringing
store
Risiko
atic
Gegensatz
Agency
Vorteil
97
Syn@@
Inseln
Koordinierung
ante
Reise
independence
treated
posi@@
Austrian
Federal
utili@@
regelmäßig
sat@@
mountains
consists
ning
smaller
extend
communities
O-@@
ischem
Monat
substantial
inform@@
ward
Farb@@
Diskriminierung
bedroom
discussing
Dienst
Environment
merely
einzigen
tical
Projekt@@
ink
exhibition
ideale
rech@@
fiscal
stoff@@
echte
bekannten
u.
staaten
6-@@
lon@@
ierten
spaces
Hoffnung
wider
surrounded
lake
liste
tz
north
los@@
seeking
story
ust
disposal
Market
Michael
Zahlen
governance
Nachdem
Card
besseren
delay
Erhöhung
read@@
Sor@@
category
yl@@
m2
tab@@
fällen
addressed
Sweden
massive
guaranteed
vo
Nu@@
Palestinian
satellite
foot
requested
remove
Beach
Angebote
Liberalisierung
claim
mas@@
schneller
Institute
Zimmern
bewegen
gets
Königreich
cent@@
leads
diskutiert
church
photos
xi@@
deutsche
strengthening
beschäftigt
publi@@
Start
SI@@
Ebenso
pas@@
Nice
Erde
SE@@
Bestandteil
zw@@
fühlen
examples
Details
loc@@
Located
44
Han@@
Flu@@
ierte
anbieten
lar@@
biggest
sicherstellen
Other
tsp@@
ausschuss
physical
fic@@
Haus@@
Banken
mass
verk@@
sprache
jüngsten
ther
sions@@
vollkommen
stoffen
Einkaufs@@
fte
staatlichen
entgegen@@
Na@@
genen
harmon@@
ett@@
Fälle
dealt
nation@@
Methoden
denk@@
wichtigste
welchen
ester
Rau@@
origin@@
migration
object
looks
1992
herzlich
reagieren
technological
outstanding
Q
Mand@@
recovery
stru@@
aging
sicht
praktisch
arms
Comm@@
Tal@@
resulting
IG@@
ching
Tages@@
Teil@@
trä@@
mode
ord
Poli@@
ktions@@
wait
Hon@@
kel@@
äch@@
zogen
aufen
vern@@
block
urge
umwelt@@
Ratspräsident
Fol@@
dynamic
determined
run@@
bezeichnet
einzelne
amm@@
explain
cou@@
i.e.
chs@@
bauen
politisch
Mil@@
ol
fort
stimmt
spezifischen
ch-@@
Gre@@
Off@@
zustimmen
rapid
ot
Format
Rome
wh@@
Titel
AS
spezi@@
Tiere
audi@@
race
einerseits
Unterschiede
räume
ée
orders
Generation
patients
Öl@@
Firmen
ei
notice
Aussch@@
gezogen
deep
down@@
64
hafte
gewählt
spread
liability
jungen
Struktur
rail
wn
serves
Holz@@
fuel
Städte
iel@@
participants
schön
reali@@
wodurch
III
Dokumente
consensus
brings
Time
Farben
weiteres
Pool
nochmals
seitens
plat@@
Media
Island
Anpassung
minim@@
Is@@
Fisch@@
Beifall
spezifische
driving
Veranstaltungen
Latin
Volks@@
ländlichen
previously
akzeptiert
optimal
Sonnen@@
früher
Infrastruktur
diversity
industries
ssi@@
Dollar
ables
Tex@@
Vorbereitung
Thanks
noise
Shi@@
Klimawandel
eck
copy
primarily
fron@@
miss@@
High@@
quick
Ruhe
Formular
damals
consultation
Fa@@
positiven
competence
tter
.de
boo@@
41
Unabhängigkeit
Atom@@
onn@@
spiel
affect
alism
bezieht
Energy
rep@@
führer
steel
dge
Winter@@
Waren
speakers
Umständen
Rad@@
Vom
Regi@@
stabili@@
Laufe
seven
Democrats
fur@@
attacks
EG
betont
talks
Hälfte
ins@@
Verfügbarkeit
prepare
manufacturing
artists
Charakter
Auto@@
T-@@
Material
Gesetze
Sar@@
Aufgrund
liefern
bereiche
19.
stellungen
kinds
temporary
abhängig
angeht
conduct
entered
ge-@@
glass
junge
primary
landscape
aircraft
Trotz
woh@@
turned
nearly
minister
Delegation
refugees
etten
übernommen
Dadurch
leiden
Diskussionen
pleasure
default
gewisse
Willen
IF@@
Out@@
cho@@
reply
aries
fi
investments
mechanisms
F-@@
improvements
befassen
Bus
jährlich
intensi@@
Bay
lang@@
frei@@
tag
Gästen
multiple
unternommen
cru@@
Gri@@
valuable
Enjoy
Netzwerk
radio
wir@@
Bedenken
sanctions
anda
soft
NL
Übereinkommen
Link
zugleich
Anliegen
gone
accounts
Before
sy@@
bedrooms
Ansch@@
sup@@
Lebensmittel@@
derzeitigen
requests
Männer
Kollege
Suite
recognise
nte
Telefon
regret
pension
strategie
.00
sam
eng
Grundrechte
websites
representative
49
bequem
gas@@
association
gol@@
controlled
ED@@
Eigen@@
Politiker
schools
bot@@
Sel@@
Nicht@@
Ausland
oral
WC
Air@@
entwicklung
Such@@
recommended
thereby
approval
skin
anz
menten
barer
beziehen
delegation
kar@@
ced
forest
Vielleicht
kürzlich
p.m.
Tr@@
behandeln
mutual
gestern
Landschaft
wichtiges
bers
Antworten
THE
hau@@
bericht
fand
verlangen
willing
Ul@@
andererseits
Square
lots
kin@@
rechts@@
VI@@
title
Verhältnis
hostels
bung
regionale
Internationalen
basiert
delivered
Kri@@
traditionellen
ñ@@
Romania
Pl@@
letter
Winter
Prodi
forum
Ordnung
05
cies
Dutch
Licht
ergeben
breite
amongst
Sanktionen
golf
ppen
Grundsätze
spa
Voraussetzung
Stadtzentrum
verstärkt
gemein@@
Landwirte
Apartment
43
Constitution
Handel@@
yn@@
verlieren
emphasise
gent@@
konkreten
betreffen
obligation
ari
asse
Despite
van@@
cheap
arbei@@
zählt
multi-@@
ausschusses
Emp@@
temp@@
47
Company
Pro
fruit
Mehr
1990
nötig
substances
explo@@
Jahres@@
serviert
highlight
privacy
Royal
drugs
enter@@
opposite
respective
alist
Strategien
manufacturers
PC@@
ut
Hauptstadt
Beh@@
Teilnehmer
solve
Einklang
alle@@
ctions
extreme
tenden
compensation
globale
represented
EP@@
gesellschaft
1993
Rule
comply
error
fill
Paper
fal@@
Alliance
dest@@
Express
moved
by@@
Stunde
Support
Grenze
Schäden
decades
Leitlinien
anerkannt
feeling
Back@@
dritten
exp@@
cross-border
Berücksichtigung
visible
sia
contemporary
Bahnhof
behörden
ay@@
dol@@
keiner
soweit
nden
250
length
Zustand
Zugriff
berühmten
8-@@
ous@@
Ham@@
demo@@
kor@@
Festival
haltung
Anfragen
identity
Peter
wiederum
Maßnahme
resolve
Teilnahme
begann
Brenn@@
Prin@@
46
wards
Design@@
marked
ET
buchen
lauf@@
helping
faced
195@@
Anlage
Schengen
esen
attitude
sm
AT
Nutz@@
tritt
tte
ye@@
Mein
fraud
Kunde
Süden
urban
bildet
höchste
exists
Mau@@
southern
Untersuchung
knows
covers
Effizienz
Fischerei
olo@@
presentation
parti@@
hinter@@
Standard@@
dlichen
bezug
diverse
Verträge
rejected
mut@@
tain
Gefühl
Begriff
resi@@
Fern@@
jährigen
finding
X-@@
umfassenden
künftig
runs
atives
extension
m-@@
Wirtschafts-
dem@@
eli@@
jahr
aktive
taste
3.
Freude
atische
Hostelsclub
Kosten@@
Safety
Straßen@@
Absch@@
vielmehr
trotzdem
Versuch
mar
significantly
Ministers
destination
Martin
Freunde
renewable
el-@@
Datenbank
meaning
enst@@
Kli@@
0er
85
tour@@
ING
Ferner
articles
suffering
st-@@
hilft
except
helps
Reaktion
ball
Definition
IB@@
OL@@
Struktur@@
dienste
arrangements
Two
z-@@
PDF
relatively
set@@
ken@@
zieren
The@@
lab@@
ly@@
operators
Innen
angemessen
emphasis
ata
Pf@@
dig@@
locations
EU@@
OT@@
mäßig
Financial
acting
Wander@@
appreciate
discovered
dom@@
genauso
Kombination
Leistungs@@
fighting
charming
Serie
ziemlich
Eigenschaften
werfen
Lau@@
wers
units
Industri@@
GB
ktive
shape
Plaza
Allgemeinen
tex@@
Book
mitteln
Korea
02
named
Agrarpolitik
trees
gungen
wen@@
directives
my@@
Studie
vous
Verbrechen
Lehr@@
mil@@
PS
öh@@
ard@@
elled
hoher
dic@@
Liebe
all-@@
wn@@
recognised
appeal
CO2
personally
sper@@
dinner
26@@
installiert
qualität
expertise
interpre@@
ked
Ther@@
Völker
39
Ren@@
Use
Sam@@
parallel
mobility
kleiner
dir
taxes
author
sold
bus@@
gens
Karten
latter
ze@@
ruhigen
Charter
Pic@@
erin
tigkeit
intention
spot
höhere
nation
lieren
applicable
wesentliche
profit
Mul@@
disaster
freundlich
Badezimmer
gespielt
sian
RO
assist
handling
ül@@
tau@@
ming
experiences
micro@@
Ara@@
Techn@@
zusätzlichen
zufolge
naturally
Chamber
boat
seien
furniture
log
Spiele
21.
Schaden
Where
Fort@@
tik
dungs@@
danger
ré@@
IP@@
sieben
xes
constant
discharge
jemand
burden
03
Körper
combating
unge@@
grün@@
3D
niemand
healthy
produkte
Fähigkeit
happens
wealth
constructive
06
engineering
Take
temperature
chter
Geist
Foto
Swedish
proof
involving
willkommen
Aqu@@
ernst
White
schätzen
ständige
Industrie@@
Verbesserungen
deb@@
strength
Ob@@
centres
rie@@
affairs
inv@@
automatic
linie
cer@@
Mikro@@
schwierigen
expectations
ress
hilfe
20.
Ohne
bio@@
sorgt
interessiert
Unternehmens
Führung
Pres@@
gefördert
sinn@@
Letz@@
Netz@@
Bewegung
Währungs@@
whilst
ri
schließt
Normen
quote
karten
producing
wesen
Schweden
Fri@@
Via
weshalb
Global
aktivieren
ai
Shop
Gott
launched
fantastic
suggest
nung
ping
diseases
ular
eiten
menschlichen
preis
western
ç@@
kli@@
tours
hy@@
ón
AU@@
ola
preis@@
objects
Verhalten
rasch
marks
Mehr@@
reserve
Gol@@
tut
ared
hängt
drawing
protecting
pen
dishes
Geh@@
gegen@@
info
Raum@@
begonnen
Vil@@
audio
zweifellos
tem@@
Küste
removed
mandate
equ@@
Menschen@@
schei@@
verändert
Materialien
truth
Dan@@
lam@@
dining
opposed
Welcome
erhältlich
lovely
best@@
reflect
confirmed
Good
fähig
techn@@
Absicht
eins
zt
näher
f-@@
Tagung
ble@@
happening
esti@@
stehende
Mus@@
eigenes
exclusively
Cli@@
mitten
Weiter@@
heraus
ought
Kann
Maria
Schule
ehemaligen
Ratsvorsitz
passengers
Auftrag
USS
Gedanken
sofern
Ladies
Strategy
Kauf@@
dig
Empfehlung
stro@@
CS@@
historische
fr@@
wissenschaftlichen
password
besitzen
Norden
120
700
bon@@
Wider@@
dert
couple
Paul
wünsche
grundlegenden
Websites
Friedens@@
ppe
Gentoo
profile
bing
Einstellung
Entwicklungsländern
Beispiele
fordere
sky
zus@@
Dort
figure
decorated
Bat@@
Rat@@
Rol@@
GNU
Rechts
gert
pose
master
obtained
ane
Kind
Ambiente
LO@@
Power@@
dene
treaty
nten
fail
erscheinen
helped
ater@@
walls
Sitz
Abkommens
Sha@@
bemüht
Tod
waters
determine
Prof@@
Beratung
balcony
holding
assure
lec@@
Dublin
Fenster
öffnen
charges
Harmonisierung
ks@@
fassen
sh
politicians
3,@@
watch
User
command
Video@@
maintained
alo@@
aly@@
Test
berechtigt
getragen
resolved
heavy
schen@@
load
prove
cam@@
zunehmend
Bush
Englisch
Dusche
erheblich
tre
Van
ams
equally
glichen
teilnehmen
Rel@@
perform
Stat@@
separ@@
output
resolutions
Militär@@
bedeuten
Vit@@
kämpfen
rapporteurs
brechen
Hau@@
Essen
eti@@
Ph@@
involvement
cycle
mentation
Hostels
beträgt
fies
verlangt
restrictions
criticism
Pflicht
ile
ises
ativ
repeat
Pop@@
Ci@@
zuerst
lay
aro@@
Strukturfonds
cold
zy@@
Wien
Problems
Strukturen
Instead
liberalisation
blu@@
10.@@
offenen
requirement
Buch@@
brief
1000
whatever
Kol@@
eröffnet
Roman
Verkauf
amounts
define
ghts
pping
Klima
intend
Je@@
schnelle
kurze
aufzunehmen
opinions
Procedure
hervorragende
q@@
peoples
Angriff
Rou@@
offices
tran@@
niemals
tou@@
Mak@@
Berufs@@
ativen
Munich
Architektur
Überzeugung
USD
neuesten
Schi@@
USB
nam@@
leadership
largely
not@@
Day
betreffenden
blog
kulturelle
Erwartungen
manager
weisung
Stellung
ergriffen
starten
ener
systemen
formen
leaving
leisure
Alternative
mei@@
Bau
Änderungsanträgen
unmittelbar
counter@@
Fernseh@@
Buch
durchzuführen
Cu@@
lebens@@
proved
increases
Lord
preise
Punkten
abgelehnt
ligh@@
staatliche
River
Ausstattung
millions
behalten
zugänglich
preparation
27@@
Fil@@
vorzu@@
erweitert
lan
Amerika
Regierungs@@
Wahrheit
gratulieren
medium
meat
sehe
streets
MEPs
seeing
chain
Nachfrage
italienischen
umzusetzen
ered
ausgezeichnete
Gener@@
entdecken
entscheidend
eye
Flash
strategies
offen@@
Mittelpunkt
zieht
ffen
gsten
Reg@@
allgemein
gener
spanischen
ê@@
urs
exceptional
connections
ktes
Croatia
opp@@
eight
pieces
west
EADS
renovated
grundlegende
cent
th-@@
wirksam
sauna
natürlichen
falsch
radi@@
Dem
tis
vorgenommen
PL@@
dige
remaining
maschinen
reich
ktion@@
rup@@
Tru@@
stellten
OR
ences
Hil@@
contributions
dens
kurzem
Stand@@
chtung
Rob@@
Blo@@
Camp@@
Ware
hum@@
Westen
low-@@
Bestellung
Immobilien@@
Drittländern
depends
Kategorie
ills
tickets
erlauben
SMEs
debates
yes
dia
lichkeiten
involve
sexual
Che@@
Bucht
igkeit
volume
Lebens
Förder@@
Gold
fehlt
definitely
Canada
meist
regulatory
bekämpfen
dates
messages
Wirklichkeit
friend
communications
scht
zentralen
Technology
Unterschied
Sand@@
aufgefordert
weltweiten
din@@
servi@@
inzwischen
Drittens
dorf
freiheit
doors
Sho@@
Ges@@
Their
Kam@@
entlang
sätze
tenen
facilitate
Poker
zurückzu@@
acy
Liber@@
Ratspräsidentschaft
row
creates
künftigen
parliaments
residence
Get
weather
liert
Sach@@
ausgezeichneten
Jedes
ries
SM@@
kat@@
0.000
anlage
omm@@
outdoor
erei
B-@@
Bank@@
Boden
firstly
verursacht
Ausführungen
submit
glad
spring
realistic
Tourismus
Bil@@
Box
öl@@
sinnvoll
tierten
weist
einfachen
finished
ee
mas
Projekten
ursprünglichen
officials
M-@@
ran
identify
übernimmt
ace
schicken
Krankheiten
precise
Des
sle@@
contracts
Los
pack@@
Park@@
tho@@
updated
Waffen
Zi@@
ala
kan
Over
U.S.
Java
Vorschlägen
facts
hervorheben
vollständige
tiv@@
ziele
ausschuß
digung
fran@@
atoren
bestand
annehmen
ght
Experten
east
Special
Gebrauch
physi@@
rou@@
Bru@@
durchführen
Programmen
Buchung
ads
kun@@
Schlafzimmer
defend
freundliche
Übereinstimmung
Wird
confirm
Kab@@
geprüft
organizations
Maschinen
entertainment
etzen
entwickelten
lists
kenn@@
settings
Front
creative
chn@@
Kapital@@
ßt
Verhandlungs@@
Applause
hit
cable
behörde
sur
Geräte
entstanden
ticket
Ausführung
colour
ena
journey
1991
ambi@@
kal@@
hardware
nachhaltigen
mt
Kamera
Wil@@
kostet
Wol@@
zulassen
extrem
angemessene
Kooperation
aden
Will
beg@@
laut
occasion
rating
regularly
zuständigen
dritte
returned
tra
erer
beglückwünschen
customs
DS@@
GDP
decision-making
ual
produziert
führende
Halb@@
anstatt
Arbeitsplätzen
täts@@
Partnern
sin@@
divided
verabschiedet
2013
ausgeschlossen
conflicts
visa
Lauf@@
parents
ello
Lag@@
grateful
Britain
characteristics
adi@@
prakti@@
Ausgangspunkt
Luxembourg
funktionieren
cc@@
head@@
amerikanische
ände
wirtschaftlicher
answers
10-@@
Netz
ktiven
Vereinbarungen
effectiveness
statistics
9-@@
break@@
IA
displayed
driver
serv@@
kam@@
Tar@@
Element
schlägt
notwendige
sichere
fizierung
issued
schafft
Verbraucher@@
deals
ander@@
ong
Mitgliedschaft
gespeichert
PR@@
Sc@@
Action
drink
wa
5.
Austausch
höchsten
stance
cro@@
derartige
reserves
tierte
died
somewhat
klaren
Hü@@
Festlegung
fee
rt
11.
Gleich@@
operational
Verbindungen
emergency
iler
q
markt@@
organisiert
rein
license
speci@@
Steuern
blue
drivers
enth@@
Tisch
arch@@
compatible
Ab
Anbieter
Regierungskonferenz
Question
recommendation
awareness
stände
eyes
impression
pour
heating
gestellten
Sim@@
Plenum
Hafen
echten
maschine
Rumänien
musste
unden
David
kel
verstanden
roads
edge
tene
oni
impressive
marquis
abroad
Mac
Entwicklungsländer
UN-@@
two-@@
Sü@@
licherweise
Massen@@
module
verschiedener
zugunsten
judicial
.org
füllen
parks
lus@@
Lab@@
höher
pfen
satz@@
ham@@
will@@
grant
plätze
Rotary
Kommunikations@@
owners
Gestaltung
ecken
lied
View
Gleichgewicht
owner
electricity
surroundings
fäl@@
schönsten
Framework
worse
termin@@
suites
launch
Bes@@
vast
spo@@
Bon@@
Reform@@
abkommen
indicated
starts
eignet
Institution
Bemerkungen
fein@@
personnel
collective
Cyprus
elling
system@@
gungs@@
frequently
continent
subsidies
verhindert
transportation
feed
minority
properties
leiten
Sauna
ausgesprochen
AND
main@@
messen
KMU
alisation
imm@@
&apos;ve
Nahen
Farbe
Ausnahme
Beweis
speaker
Old
Boo@@
ter-@@
Stein@@
Deswegen
ony
On@@
pollution
zig
Drogen@@
westlichen
bestätigen
functioning
Spar@@
teren
faster
nahm
sla@@
lle
Beiträge
Werbung
Funds
kol@@
Klasse
Verringerung
Fac@@
Verbot
Basi@@
depending
mod@@
OS@@
Post
bezahlen
bedeut@@
sole
Nov@@
aufnehmen
Hinter@@
Nachrichten
beschränkt
Bulgaria
conducted
teams
Umgang
isation
ethnic
interessante
regul@@
\
Alter
fru@@
lounge
Under
2012
sodass
Ele@@
Werk
Fähigkeiten
Assi@@
04
appointed
tende
ele
signs
iso@@
zahl@@
configuration
satisfied
enzen
PH@@
Las
ausgesetzt
Garantie
committees
stored
Fü@@
gearbeitet
desk
School
Regime
München
wann
Waren@@
sern
erleichtern
topic
4.
rechtliche
Maß
steller
Straf@@
gehende
sor
dence
wirkt
hundreds
ann
focused
zunehmen
nights
Konflikt
es-@@
für@@
kurzen
carbon
uss@@
Zoll@@
organized
Eu@@
hall
Zusatz@@
Eltern
vorlegen
plays
wachsen
mus
aktiven
weiten
stream
Kr@@
leben@@
Geschäfte
vieler
ome
careful
Sou@@
atten@@
a.
weg@@
ett
Ob
involves
uting
gate
Amendments
noted
Besonders
passiert
Schwerpunkt
welfare
ando
Kas@@
Fla@@
bike
1989
Prinzipien
addi@@
Gegend
lift
ED
ume
buch@@
Desk
smus
Einbeziehung
proud
windows
Komponenten
wär@@
vorher
understood
Kin@@
Zentral@@
library
geltenden
looked
prefer
Organ@@
trafficking
Charta
lautet
denden
bilateral
demanding
blood
Euro-@@
werten
ultimately
Zimmer@@
ix
universal
Real
Vision
anische
Haftung
strict
wasser
bemühen
Jede
familiar
schu@@
actively
ader
bern
wollten
kno@@
Kredit@@
sische
Einstellungen
stag@@
reject
Japanese
Lim@@
zäh@@
sorgfältig
umgeben
seat
Planung
TO@@
entwurf
int
hinzufügen
declaration
breiten
occur
Copenhagen
mul@@
tter@@
Komp@@
Monetary
ez
reported
contacts
ok
Dorf
techniques
verbringen
verleihen
bridge
Marina
delighted
father
bild
p-@@
joined
custom@@
Pla@@
tag@@
V-@@
Yes
post-@@
Kontakt@@
Portuguese
ash
conditioning
Sy@@
träge
bom@@
mostly
früheren
spoken
boot
get@@
Ziffer
AP@@
grow
imposed
castle
Pass@@
competent
islands
hö@@
Datenschutz@@
dynam@@
Quali@@
Gerichte
massage
installieren
gerichtet
Optionen
EX@@
Dol@@
Gespräche
Führungs@@
Sit@@
aller@@
Angst
definiert
classic
mol@@
AV@@
remote
documentation
unmöglich
frag@@
lü@@
cket
arrive
Dat@@
desired
Minderheiten
sicht@@
copyright
Transport@@
channels
Morgen
dischen
formed
Tel@@
12.@@
vertrag
solange
Black
Veranstaltung
schau@@
,00
Schluss
vorschriften
afternoon
Europol
Luft
Handeln
begrüßt
famili@@
ferner
Log@@
vertre@@
dd@@
phrase
bound
irs
verringern
justified
Pin@@
Trau@@
hostel
nahmen
Perhaps
Sollten
ately
Report
printing
Vorschlags
ros
tea
let@@
chemical
decken
C.
sä@@
altung
ausgeführt
visited
dun@@
invite
soli@@
Texte
Faktoren
flights
dende
Künstler
liefert
Gemein@@
ama
Friday
ania
ación
Wissenschaft
Verfassungs@@
gestaltet
präsentiert
performed
Baltic
Cat@@
SV
deckt
Executive
Alles
Zwischen@@
direkten
Update
Politiken
läßt
metal
clubs
Justiz
ministers
tackle
interior
accompanied
51
Erd@@
schem
verändern
cosy
welchem
meant
Kra@@
ased
subsidiarity
Trek
erreichbar
Insbesondere
provider
Protection
Vis@@
är
fläche
einheitlichen
uss
linien
gebiete
motor
ize
schlecht
moral
follows
Wünsche
Straßen
Balkon
terrorist
pass@@
Puerto
Selbstverständlich
northern
S.@@
beraten
correctly
esch@@
corner
iting
Tim@@
einig
Wohl@@
klar@@
Asyl@@
Vorgehen
demonstrate
cross
52
deli@@
mus@@
Mobilität
soci@@
bestehende
abgestimmt
showing
Gerichtshof
maintaining
fördert
86
ession
Second
legi@@
Arbeitsmarkt
orial
eastern
viel@@
respected
hair
Sorgen
reiche
ima@@
Identi@@
vorhandenen
Tatsächlich
jegliche
Internet-@@
mä@@
nah@@
höheren
serving
ani
cell@@
Sommer@@
organisationen
tierung
assume
occasions
Adobe
Signal
Zielen
Verteidigung
Thirdly
betrieben
modern@@
PRO@@
entsteht
Gesellschaften
pm
Wein
formal
demonstrated
visiting
Wind@@
wie@@
Aktion
teilt
lern
Noch
ain
sucht
Versionen
Ster@@
Nein
hren
farm
vacation
Nos
Miss@@
kla@@
Webseiten
gewährt
MySQL
u.a.
grundsätzlich
cked
zentral
ish@@
72
eth@@
Hilfs@@
übrigens
tically
2.0
Mensch
kamen
NI
Sollte
bestimmen
concluded
raw
Budapest
IC
Marktes
äußern
Den@@
Newsletter
sicher@@
sierte
Außenpolitik
pers
Rund@@
Structural
druck
18.
Zwecke
gezwungen
Robert
investors
minorities
Staat@@
taxation
entrance
tourists
einrichtungen
isi@@
plenty
erhebliche
spec@@
Wi-Fi
Veröffentlichung
ky
Stre@@
mi
scheme
ú@@
Einwanderung
career
cast
Firmen@@
Act
Besorgnis
sight
corruption
nungs@@
spartner
categories
match
stars
relaxation
pped
komme
verdient
ron
prozesses
nehmer
collaboration
ruhig
machte
Beziehung
überzeugen
ordin@@
inhabitants
dependent
bles
een
Kontrollen
Bewer@@
presents
Medien@@
billi@@
Fuß@@
Bemerkung
containing
frame
schauen
transition
album
Kilometer
or-@@
Eis@@
holen
Due
lebt
Jan@@
ail@@
OM@@
dich
widely
Lö@@
PP@@
updates
overcome
Erzeugnisse
aria
d.h.
gallery
Rezeption
ließ
Belgium
unverzüglich
expert
Analy@@
Führ@@
apart
facility
ong@@
Untersuchungen
zusammenarbeiten
institutionellen
hän@@
bekämpfung
possibly
geboren
Freiheiten
belie@@
oriented
high-quality
well@@
explore
transactions
R-@@
verehrte
sensible
passenger
handel
beschäftigen
Oper@@
verurteilt
flü@@
verkaufen
conc@@
Port
Chancen
liked
count
dans
Hohen
channel
rely
160
LE
jahr@@
Description
Mexico
determination
genügend
arrived
gardens
ongoing
newly
Ferien@@
wines
e.@@
regarded
credibility
heits@@
ald
Mö@@
tlicher
sharing
eingereicht
replaced
EM
Je
Pakete
intellectual
Aut@@
aussprechen
gg@@
basi@@
Erholung
globalisation
verhalten
ungefähr
Northern
lokale
argument
fitness
außerordentlich
ersetzt
Individu@@
Messe
crimes
replace
tables
Plattform
theit
trau@@
Washington
News
gent
studio
Flo@@
staat
Fischer
firms
Preisen
declared
Verbreitung
entscheidende
PS@@
rapidly
Les@@
liegenden
behaviour
Brazil
immigrants
avec
scheinen
zieh@@
corresponding
tennis
sprachen
lauf
derung
Edition
maritime
Malta
s.
fei@@
Sonne
Konsens
TS
sing@@
Kurz@@
VAT
Polish
Umfeld
generated
Rom
begrenzt
ktor
Sektoren
tested
Produ@@
elten
nunmehr
Prote@@
stylish
Zentralbank
stronger
sending
with@@
weite
effektiv
cutting
bereitet
distributed
geräte
gold
Software@@
Film@@
lasting
Fru@@
zeugen
wiederholen
enjoyed
Mach@@
programms
Stück
usual
DA
Fun@@
Sei@@
organ@@
Earth
legitimate
organisieren
EG@@
Studenten
einzigartige
dal
eres
erst@@
hot@@
Nation@@
Radio
miles
contrast
direkte
Ide@@
bre
Poly@@
proposes
gehenden
Übersetzung
Ausgabe
SS@@
milk
standen
educational
MB
Music
vorbereitet
benen
functional
dürfte
va@@
percent
kommen@@
rental
fon@@
exciting
resistance
Balkans
Anschluss
gei@@
heritage
größer
jo
WLAN
Neue
perfekt
vorstellen
einfacher
woman
tes@@
sicheren
planet
adults
Rechtsgrundlage
duc@@
Mad@@
heat
settlement
Hungary
wohnen
ils
PO@@
Studien
informationen
addresses
nahezu
stischen
pel@@
considering
individuelle
lösung
plenary
routes
puts
bottom
Given
Zer@@
S.
letztlich
verantwortungs@@
Golf@@
Gewicht
reduzieren
flat
gän@@
encouraging
acted
president
appearance
sierten
igung
tos
nissen
präsentieren
å@@
ös@@
Kyoto
Gesam@@
Well
versorgung
them@@
slightly
Wohnung
welt@@
satisfaction
esses
Tom@@
King
Frei@@
identified
gio
sich@@
Krankheit
Nachricht
Hostel
Bereitstellung
Mol@@
kul@@
professionals
Mün@@
department
CE
constitutional
ton@@
identi@@
54
gewal@@
Eisenbahn@@
kürz@@
respon@@
providers
disk
Tab@@
aussch@@
vulnerable
mix
Gründung
Zusätzlich
atischen
Pack@@
Sun@@
erinnert
preparing
examine
substance
earth
proposing
Mich@@
gebieten
anwesend
Hier@@
psych@@
hängen
Kapitel
Abschnitt
ening
Bars
bestimmter
verstärken
het
Rest
gerät
Mari@@
Beschlüsse
proceed
ds@@
Wirk@@
Erstellung
direc@@
directory
Sicherung
steuer@@
Geheim@@
erfolgreiche
A3@@
Life
Deutschen
Fax
Or
mented
iten
Food
ck-@@
verkauft
eingehalten
ute
inclusion
Systemen
Genehmigung
beteiligen
interpretation
virus
herrscht
Without
Saint
derer
Facilities
Thursday
valley
voluntary
ita
ce-@@
sch-@@
reform@@
chern
towns
specified
adopting
Within
Kräfte
solid
Pact
licht
tobacco
Mur@@
Don@@
selbst@@
still@@
solches
individuellen
essen@@
partly
Ret@@
Zone
decisive
recorded
destruction
mö@@
voran@@
finanziert
courts
foundation
applying
rati@@
films
gere
trägen
ency
swe@@
unds
filter
citizen
ó
Benutzer@@
fashion
Rus@@
kg
comple@@
domain
Hungarian
top@@
gran@@
drücken
Darum
elektronischen
Vorsitz
Dru@@
aum
abuse
aged
digt
bereitgestellt
werken
suggestions
Guests
gestattet
Kurs
angegeben
überprüft
beruht
tol@@
Training
Videos
15.
occup@@
Vir@@
Datei@@
Blog
exception
Kir@@
1st
EB@@
Hall
sprach@@
gesellschaften
anbelangt
Oder
index
transpor@@
IV
Identität
Atlantic
Schulen
Sozi@@
ständen
cel@@
dance
entscheidender
tun@@
sit
Auge
kompet@@
inklusive
Neben@@
component
rock
Thomas
accurate
glob@@
App@@
impose
spoke
inflation
wissenschaftliche
britische
theme
suffer
bs@@
Schlussfolgerungen
housing
Männern
weekend
räger
tigt
aufs
ont
ensures
Ausstellung
Beschluss
ado@@
großem
tively
expansion
topics
suppliers
Städten
beantworten
fas@@
Termin@@
heutige
yed
complicated
owned
slo@@
reservations
saving
quali@@
nevertheless
IT-@@
Nah@@
einbezogen
flows
wand@@
AK@@
Lieferung
Rahmen@@
OF
vent@@
satisfactory
bert
jenen
Maastricht
Quar@@
deine
and-@@
Entlastung
li
geo@@
eten
mo
inde@@
teilung
division
Glas@@
auer
burger
Wir@@
lock
voraus@@
verbinden
Following
Gran
Entscheidungs@@
mother
Überlegungen
COM
BC
eff@@
Space
se-@@
CS
industri@@
Fle@@
gangs
Ty@@
.000
duties
ade@@
ques
Ag@@
ero
Ton@@
din
Kauf
größeres
kanischen
Schwei@@
bislang
Marketing
Katastrophe
slow
shares
herr@@
zun@@
Konsequenzen
etes
tives
ela
drinks
Mitarbeitern
mach@@
connect
irgend@@
geboten
Agriculture
generate
battle
TO
input
long-@@
Fel@@
surely
Arbeit@@
enabled
Client
Py@@
invest
TI@@
tan
wechsel
ards
verkehrs@@
zustellen
71
Stoffe
greatly
patent
exit
disabled
straight
lessons
George
iner
wege
Gewährleistung
elsewhere
Rap@@
Acc@@
dul@@
Ungarn
Mangel
Budgets
Prop@@
Freunden
beigetragen
erzeugt
difficulty
Exchange
raten
wonder
offiziellen
farming
strategischen
champ@@
Legal
supplies
funktion@@
extra@@
youth
electric
portal
add@@
fs@@
vermitteln
Ansichten
shipping
festival
obje@@
Mail
excessive
ishing
dru@@
zuständig
kts
wear
BMW
Assembly
solely
Son@@
Dienstleistungs@@
Person@@
eds
anne
dan
kri@@
Parkplatz
erlebt
carrying
Dauer
absence
toler@@
handle
gefallen
packaging
Congress
allocated
Schiff@@
integriert
menschliche
Gest@@
cial
motor@@
spectacular
Jun@@
kleines
Wohlstand
eld
schung
moti@@
Mission
sprech@@
zahl
winning
gewissen
Fal@@
isch-@@
Reduzierung
disp@@
impor@@
Flü@@
53
Verk@@
Wo
nieder@@
consent
erfolgreichen
arguments
schwer@@
Vorstellung
hear@@
cuts
ond
Cha@@
Dafür
Wählen
versichern
bet
videos
gewi@@
investieren
finish
Extre@@
Revolution
Mobile
cooperate
Ram@@
Herz@@
mittleren
ny
heben
vieles
effizient
forests
92
amb@@
tief@@
fuer
fahrer
Network
AN
luxurious
entwickelte
kontaktieren
ulate
Ed@@
equi@@
L-@@
stung
Sony
root
Whether
treat
Bedrohung
paying
Autom@@
Fein@@
wirk@@
sprach
leistungen
führten
permitted
mem@@
tei@@
hen@@
mächti@@
§
Browser
Schiffe
entes
Band
leistung
comparison
Suiten
Zivilgesellschaft
pursue
nit@@
Werke
Strasbourg
filled
labelling
Besides
Garden
bereichen
Israeli
selben
verkehrs
description
·
anzuzeigen
auftreten
Kollegin
harmonisation
Canon
Vorhaben
constitution
ere@@
ouse
6.
behoben
poly@@
Like
wed
periods
Polizei
Lebensmittel
AD
zeichnen
eventually
spann@@
häuser
Interessen@@
verteilt
weitgehend
66
sie@@
Zy@@
losses
Bir@@
extraordinary
Schlüssel
Gefahren
secret
por
mentar@@
Kroatien
Touristen
wiederholt
Glaubwürdigkeit
drug
letztendlich
freut
jün@@
receiving
56
wat@@
FT@@
ico
Boden@@
beobachten
68
Gegenstand
Einwohner
virtual
layer
gewonnen
itali@@
ère
sus
enhance
König@@
magnificent
Verb@@
directed
Based
Str@@
HT@@
druck@@
sheet
internen
alization
subjects
CON@@
Town
Lounge
Gerät
Finanzierungs@@
Holiday
französische
gemeinschaftlichen
welcoming
Church
import
Sunday
sozialer
Praktiken
fli@@
ham
Having
confirmation
Roh@@
XP
dor
Positionen
leb@@
individuell
proven
selling
mali@@
fans
Grad
kette
verbundenen
everyday
manufacturer
cab@@
Boot@@
Frühstücksbuffet
laufenden
betreiben
Mail@@
Tools
akt
hierbei
Kontakte
Energien
herunterladen
obliged
Auditors
Schw@@
frie@@
Einheit
Kop@@
Zwei
vorzulegen
künftige
Mem@@
James
ähnliche
arbeits@@
imports
Blan@@
modell
fulfil
wohl@@
russischen
Strom@@
sü@@
verfügbaren
Champ@@
departure
Politik@@
beschrieben
Wo@@
ober@@
angebot
Übergangs@@
probleme
Trotzdem
Monday
gained
wan@@
Belgien
ziel@@
drei@@
fertig
Gerade
succ@@
verst@@
els@@
Betrag
assets
trial
Tour@@
sauber
Sein
Redner
Vel@@
Wur@@
lik@@
sitz
Werbe@@
Programm@@
buch
but@@
quarter
en-
Tool
Kontext
stolz
necessarily
sugar
liberal
Budget
Hot@@
abstimmen
chtet
university
schla@@
dauert
suggested
BIP
Modelle
Cer@@
itäts@@
illegalen
concepts
pt
Schwer@@
Tau@@
sicherung
traditionelle
Weiteren
aner
mussten
Fahrzeuge
Spaß
revision
raising
Übernachtung
Brun@@
vorgesehenen
gedacht
hundred
exports
ausgerichtet
40@@
programming
uted
viol@@
Plus
ney
Fon@@
savings
promised
representation
sil@@
entschlossen
traditions
hervor
gründen
Beitritts@@
feu@@
makers
7.
akti@@
ned
lers
Ausflüge
17.
argu@@
Rich@@
Power
cont@@
Sig@@
bekannte
referendum
lobby
lte
aktiviert
supervision
wave
cash
Bö@@
asses
lined
cian
ordinary
label
fang
entspannen
Selbst
Situationen
unterstreichen
depend
fly
countryside
Alp@@
constitute
kräfte
Prüf@@
bergen
Playa
gste
ähnlich
welcomed
vin@@
Tan@@
colours
ologi@@
HTML
bedeutende
cleaning
supplier
Show
Viertel
reduziert
artist
gelingt
einf@@
Flüchtlinge
therapy
utz@@
isen
mangel@@
betreffend
smo@@
speichern
vorgeschlagene
negotiating
absor@@
overview
eit
Brasilien
mes@@
schie@@
Provinz
instructions
Taiwan
mitteilen
tered
emerging
wunderschönen
Konto
zukünftigen
orts
Mut
11.@@
Arab
Betten
wirtschafts@@
Körper@@
wirtschaftlich
Does
rap@@
forthcoming
missing
Image
Live
einzusetzen
united
optimale
errors
pil@@
richtet
Einkommen
amenities
Hy@@
grös@@
stocks
unity
Glück
langsam
Prozesses
mann@@
Verletzung
GN@@
Obama
angebracht
mechan@@
59
Salzburg
trips
Prozesse
Sind
verteidigen
Finland
attempts
Ganz
jener
vorher@@
mischen
legally
asser@@
clean@@
Friendly
Bulgarien
Personal@@
Elektro@@
Fehler@@
58
Heizung
beendet
cted
Telefon@@
Wes@@
schlag
Erfüllung
unterliegen
vorschlag
Aufsichts@@
Kommissions@@
army
thousand
altet
wirksame
villa
Dre@@
Gast
projekte
schrift
kontrolle
verbindet
konfrontiert
banking
wireless
Eigentum
trag
liefer@@
Prague
Zuständigkeit
Freizügigkeit
Num@@
arti@@
kung
bekommt
unterzeichnet
stages
gebildet
insi@@
preventing
ites
ersetzen
Meines
Federation
NGOs
20-@@
Nummer
Pet@@
dt
recht@@
zeichn@@
arise
ativ@@
non-smoking
klein
Schiff
succeed
ride
proceedings
este
AC
realise
Gran@@
punkte
täglichen
prosperity
barriers
sections
inten@@
egal
Donnerstag
gliche
wrote
bestellen
deswegen
angesehen
institutionelle
dam@@
leaves
gebeten
Should
trend
freedoms
illi@@
stil@@
ausgegeben
restricted
stry
Award
SA
unterscheiden
wettbewerbs@@
destroyed
foot@@
©
Parlaments@@
gh
offene
ursprünglich
angepasst
spreche
Organe
grenzen
fairly
doesn
langfristige
ums@@
pools
appeared
non
steuern
firmly
Islands
scene
Cra@@
Landes@@
wach@@
ential
diplom@@
Fas@@
effe@@
Vorlage
sichts@@
invited
welcomes
stab@@
ac
Sterne
Tem@@
enabling
awarded
100@@
interessant
Korruption
Cur@@
fax
cot@@
dur@@
niveau
annte
verein@@
Anlass
Asien
significance
deficit
Bahn@@
allzu
functionality
sparen
Debian-@@
wechsel@@
continuous
dienst@@
hör@@
ring@@
gerufen
Tätigkeiten
Krisen@@
Sat@@
Grünen
16.
introducing
modules
wert@@
Digital
asing
H-0@@
ented
delicious
Set
Marke
erhielt
eat
Situated
passen
tionally
notes
Kulturen
jährige
Freitag
fassung
ests
politically
Befugnisse
inos
vierung
villages
pression
Schwar@@
diert
setz@@
Verarbeitung
suffered
Rö@@
ended
pot
Ant@@
genannte
Soviet
ial
Skype
schm@@
heim@@
Vorsch@@
blocks
indicate
parameters
Captain
ahn@@
dankbar
erzeu@@
obstacles
cos
hier@@
Menü
Binnenmarktes
Haushaltsplan
conf@@
coordinated
religion
ville
Nachbar@@
konzentriert
Gerechtigkeit
ungsverfahren
beings
safeguard
killed
than@@
Sum@@
gelassen
Verlust
alities
klein@@
Through
rising
anner
ator@@
Stimm@@
unabhängigen
a.m.
Women
kehr@@
Wirtschaf@@
-based
inmitten
symbol
Posi@@
Law
Kap@@
effiziente
gewähren
patient
Gehminuten
Abschaffung
ACP
8.
manche
Gericht
chinesischen
enthaltenen
homes
Main
Staates
Aktionsplan
Inform@@
bonus
dent
einzigartigen
revi@@
non@@
adverti@@
upper
ski@@
vollständigen
sau@@
anschließen
Denk@@
gendes
Widerspruch
Refer@@
verdienen
J
sk
breit@@
Who
Bou@@
schwei@@
bisherigen
estimated
aqu@@
Wachstums@@
stör@@
Genießen
remarks
vessels
günsti@@
Stockholm
penalty
Notes
vorliegende
ading
ols
exploitation
Anti-@@
Charles
umfangreiche
publication
Valley
Cir@@
ag
fähigen
jetzigen
sively
fees
schli@@
Risiko@@
einheitliche
PD@@
schnell@@
langfristig
hardly
Geschmack
saved
Hom@@
Airbus
shot
moder@@
istic
mitglieder
societies
museums
gesetz@@
praktische
Pläne
wahlen
centuries
weak
dness
A.
behaupten
stä@@
initi@@
Last@@
fü@@
gnis
tigung
zentren
richtung
wis@@
UM@@
Kopf
Kirk
ame@@
G-@@
unforgettable
Salz@@
sex
ite@@
bares
Vater
Vista
ologischen
steigt
contributed
checks
deposit
leu@@
Mallorca
entsp@@
adapt
specialist
politi@@
servers
Bade@@
ano@@
Vier@@
ergibt
sounds
Dun@@
griffen
Anwendungs@@
oning
refer@@
Quality
rare
computers
ora
korrekt
könnt
fourth
formation
antworten
trieben
considerably
protocol
AR
budgets
grosse
supposed
covering
Tele@@
zuzu@@
AM
chem@@
inf@@
Single
verboten
Transpor@@
anschließend
organic
Wald@@
disasters
57
lunch
SL@@
unabhängige
zukünftige
haf@@
läu@@
philosophy
Games
hervorgehoben
humanitäre
characters
ées
kern
adapted
steh@@
tree
UT@@
empfangen
par
Eli@@
sah
füll@@
erfreut
erwähnen
BSE
auto@@
hearing
actors
vil@@
Staff
su
et-@@
gewünschten
vereinbart
Mei@@
Zeitung
struktur
Kreditkarte
bestimmungen
quar@@
transmission
kernel
lieber
reaching
gram@@
endorse
reli@@
hochwertige
sustainability
classes
sach@@
mot@@
collected
Offen@@
erstmals
besonderer
none
exclusion
supplied
Regel@@
ernsthaft
gewis@@
approve
tari@@
verwaltung
Kanada
HO@@
Computer@@
legte
Zahlungen
euros
methoden
Märkten
hingegen
prec@@
resource
militärischen
undoubtedly
pure
Professor
lev@@
hospitality
gap
gering
severe
visu@@
script
Abendessen
körper@@
ior
illu@@
rum
fügen
Beteiligten
gelegenen
Bul@@
Schla@@
Rio
heim
10.
Berichten
ori
Mutter@@
Andere
Pon@@
vation
aut
metro
Sachen
überein
Feld
explained
Dep@@
CAP
Kriegs@@
Kriminalität
Would
Reservierung
productivity
productive
everybody
Len@@
Pul@@
ehen
Steuerung
AF@@
itä@@
Wirtschaftswachstum
excluded
theory
New@@
gemeinschaft
Willkommen
Respekt
coun@@
speciali@@
Blu@@
mouth
sichtbar
bach
renowned
Standort
Akti@@
Lizenz
Perspektive
designs
alized
Mir
nutz@@
Vertrages
Gemeinsame
militärische
festzulegen
inst@@
yo@@
super
Christ@@
Zug
Gold@@
Anstieg
komple@@
Gerichts@@
oper@@
Bü@@
äh@@
Dritten
nachdrücklich
enhanced
drop
hydro@@
courage
Venice
bereiten
Eink@@
Cookies
relative
skiing
Parkplätze
Location
ktiv@@
nde
Veränderung
greift
sphere
Ebenen
concentrate
kes@@
cells
Drei@@
hr
halb
Runde
acceptance
67
förder@@
unterschiedlich
refers
Bis@@
Australia
regu@@
Geschäft@@
eingegangen
Ablehnung
Regierungschefs
uter
tin@@
Hat
freundlichen
eckt
Stimmen
Ankunft
kontrollieren
Volksgesundheit
Socialist
archi@@
Nahrungsmittel@@
externen
imagine
Education
Handels
Guide
Ep@@
A5-0@@
Cri@@
Saturday
Point
gere@@
umfassend
iness
Weg@@
Ga@@
Rein@@
Gang
floors
Amt
Regional
combine
ais
fanden
ktoren
Passwort
nütz@@
EE@@
clause
ref@@
portfolio
bedanken
festgelegten
modi@@
Konferenz@@
Year
Sec@@
VER@@
Check
flächen
richtlinie
gerung
Thailand
geplant
steten
anhand
travelling
male
Terror@@
ni
selten
originally
esse
camp@@
Ferienwohnung
Schlaf@@
remained
recognized
grenz@@
züge
Geneva
Leg@@
Mes@@
ema
Tei@@
hart
Quellen
h-@@
AIDS
cancer
pp
Theater
fähi@@
Gleichstellung
Institu@@
tual
fir@@
Islam
hohem
Ursachen
geeignete
violations
well-known
cer
stands@@
untersucht
pä@@
armed
93
turning
Gam@@
Reisen
umsetzen
unfair
worthy
normalen
alisierten
roll@@
strukturi@@
88
Commissioners
Sin@@
Wür@@
trends
Putin
Frist
Haben
arm@@
seri@@
eil
Büro
Next
processed
Trop@@
dignity
Kla@@
geraten
Sau@@
Erst
überaus
tern@@
Partner@@
undertaken
individu@@
artistic
rechnen
natürliche
einzuführen
hill
thin
Family
Tausende
nicht@@
hoffentlich
Verteilung
diskrimin@@
dering
analyse
Stability
gli@@
Kranken@@
lived
cross-@@
Est@@
dere
sammeln
nützlich
beschränken
reaction
fishermen
fährt
U-@@
Geschwindigkeit
besorgt
briefly
verti@@
dargestellt
angewendet
assess
suit
nec@@
spa@@
ätze
sichergestellt
Tourism
showed
fix
Agenturen
universities
chair
voc@@
boards
ura
Apple
ssen@@
erfordern
normalerweise
yers
ete
ario
schnellen
Arbeitsplatz
ordered
Emissionen
accident
transferred
hervorragenden
Mont@@
Mr.
è
nummer
gesp@@
änden
dream
fast@@
inger
dry
ans@@
letters
leichter
sierungs@@
typ@@
pretty
thermal
stück
Stad@@
Gaza
Information@@
existiert
Play@@
dialog
entdeckt
Waffen@@
gut@@
justi@@
aside
aming
merk@@
komfortable
Place
strategische
ull
Serbia
investigation
generations
consulting
printed
alt@@
Cup
hl@@
geschichte
komplette
Ausmaß
Abhängigkeit
BO@@
zurückzuführen
inner
sement
Publi@@
Besitz@@
gue
gefragt
reserved
ford
Pau@@
Sitz@@
melden
believes
reflected
dau@@
kop@@
bis@@
Pun@@
konferenz
Konflikte
parliament
dark
cement
CHF
Schon
Volkes
Consequently
tert
Geschäft
Wechsel@@
anim@@
Jung@@
Grün@@
Forsch@@
Küsten@@
Vereinfachung
regardless
Hab@@
ausgezeichnet
politisches
reliability
cour@@
Gemeinde
lösungen
Berich@@
Andererseits
faith
auff@@
atik
enterprise
täten
Somit
strengthened
Master
ichte
geäußert
whereas
9.
automati@@
GU@@
erneu@@
Rechtsstaatlichkeit
vornehmen
aux
DO@@
oria
Nachbarn
lierten
stellungs@@
hierfür
prof@@
Balkan
altern@@
viert
wahren
4,@@
zeug
step@@
12.
öffentlich
missions
63
Schwe@@
ee@@
didn
Parameter
joining
vieren
Gelder
Lizenz@@
dated
Hö@@
schweren
13.
essi@@
Fan@@
Dritte
fleet
targeted
ten-@@
ease
Instruments
beru@@
wild
ange
Würde
diversi@@
football
Schu@@
movie
erkannt
thy
Deutsch
keinem
urgently
Consumer
award
aufgebaut
olog@@
Sol
Dies@@
appe@@
ph
adap@@
cen@@
Lok@@
bathrooms
Pati@@
restore
heißen
ells
switch
movements
Meeting
Cent@@
regel@@
ail
Ombudsman
cle
produzieren
umzu@@
geprägt
subsequent
abo@@
anywhere
Castle
Schweizer
normally
Islamic
Tor
amed
tain@@
amazing
op
freely
enge
wür@@
gemä@@
counter
ony@@
Plas@@
verweisen
ap
alty
Get@@
formats
ium
synchron@@
Eurozone
berichten
elte
lischen
Lastly
ration@@
female
Parlamente
bol@@
Project
Allianz
Beide
Investitions@@
Umweltschutz
waffen
driven
Blut@@
dings
grad
sogenannten
nungen
Planeten
Währungsunion
sufficiently
bezahlt
irischen
Leitung
bly
tail@@
wellness
efficiently
EP
gin@@
ologische
Registrierung
restructuring
belief
appropriations
dev@@
gestaltung
Darstellung
equivalent
80@@
Umwel@@
zugrunde
tory
Cle@@
mine
Musi@@
bende
nd
Rechten
sought
Diam@@
graphic
eingestellt
grade
Mini@@
Handlungs@@
Dokumenten
Gir@@
qualitativ
Faktor
Öffnung
oned
ending
ped
brachte
Marken
teen
restored
rechtzeitig
doub@@
jun@@
prop@@
ling@@
ished
Wochenende
märkte
Bestimmung
schä@@
attached
def@@
codes
Belgian
irre@@
compact
gesetzlichen
Zahlung
akzep@@
EU-Mitgliedstaaten
reconstruction
conventional
Rem@@
vorbei
Wirtschaftskrise
technisch
fähige
relates
Staatsan@@
Entspannung
küh@@
meal
passt
Eingang
erweitern
reifen
froh
satisfy
um-@@
plastic
82
assembly
letz@@
kontrol@@
gestärkt
Americans
MA
Verlauf
angemessenen
internationally
neighbouring
inner@@
Don
einfach@@
behält
niedri@@
iPhone
shed
secre@@
Pack
Teams
atz
verfol@@
dict@@
intends
ital
tracks
ès
Quelle
empfohlen
birth
kas
Top@@
stan
Hä@@
festen
Pil@@
hung
pillar
collect
stuff
Internationale
della
entgegen
Lang@@
arbeitete
leitung
Bearbeitung
produces
Ali@@
hast
lieb@@
Rückkehr
Todesstrafe
94
shadow
federal
Ol@@
viertel
vierten
zukommen
Spitzen@@
Vorausschau
till
mess@@
Bin@@
chti@@
früh@@
stattfindet
kontrolliert
deep@@
Tests
ebene
Papier
greif@@
entering
gehör@@
ökonomischen
elli@@
stärkere
ECB
Ari@@
Piazza
Bibliothek
Tages
materi@@
ind
Seri@@
wol@@
overlooking
hi
kus@@
Minute
selber
usage
guided
statisti@@
spiele
Dreh@@
cultures
Road
Hong
Kong
Web-@@
genaue
kra@@
proportion
Denmark
pit@@
aktu@@
gements
62
schule
individually
seu@@
Georgia
letzter
Bot@@
Spielen
managing
199@@
everywhere
ed-@@
upgrade
bo
Prozess@@
Protocol
Beseitigung
ux
spra@@
Großteil
geleitet
sovereignty
Up
gation
TE
tier
refle@@
sights
graph@@
Will@@
Stuttgart
Speisen
Tibet
hil@@
Key@@
gaben
grossen
wachsenden
underground
Be
Finanzkrise
disc@@
senken
learned
adds
LA
Institut
Hauptbahnhof
beziehungen
vorschlagen
ey@@
Homepage
zahlung
amt
iled
Christmas
treatments
auffordern
chter@@
acknowledge
hü@@
Mü@@
anzeigen
dating
operates
Nero
Innenstadt
Straßburg
gelesen
sees
Generationen
Haut
zerstört
ote
übersch@@
ecological
Erinnerung
Orte
Kontinent
uniform
profits
vali@@
inated
taxi
song
Jugend@@
arising
bright
Anwender
lob@@
a.@@
Customer
Maschine
belong
deut@@
Erhaltung
ländliche
tot@@
tief
digitalen
fut@@
engines
zog
sichti@@
voraus
intelligent
manufacture
án
0s
posed
lic
bla@@
zent@@
Tür@@
Kü@@
überwinden
Länge
diesbezüglich
Mechanismen
coherent
abilities
max
absol@@
Up@@
Optim@@
dlicher
Überblick
gewer@@
gegenwärtige
mistake
eth
St
Lern@@
meter
Hohe
Dialogs
alisieren
derzeitige
Unterkategorien
deeply
enorme
iniert
cast@@
ami
meaningfully
Ker@@
Alt@@
blei@@
Personen@@
griechischen
Debatten
89
91
--@@
Les
Opposition
roman@@
enthalt
bewältigen
Mrd.
gehei@@
Stock
dische
romantic
panel
Aufzug
gkeiten
Obje@@
Resolution
Berliner
Email
brau@@
annten
Montag
logical
69
bat@@
steam
songs
reise
Spezial@@
alem
worst
liter@@
unded
us-@@
Armee
Bereitschaft
priv@@
sand
Sudan
lädt
binden
acti@@
räumen
Miet@@
effektive
Il@@
operated
consu@@
Have
shuttle
Dingen
verfahrens
Berichterstatters
commun@@
convenience
liable
Schrift@@
Niederlanden
warning
of-@@
Asian
Egypt
seconds
Es@@
Kopenhagen
linken
reflects
sub-categories
ino@@
integrierten
konkret
prime
Florenz
lor@@
CDs
Branche
rechtlich
profession@@
damages
strasse
illustr@@
Fahrt
tech
nat@@
dead
Bord
Schloss
Versorgung
spite
Strand@@
geographical
untersuchen
gement
cool
Sicherheitspolitik
highlighted
Blue
Sammlung
77
CD-@@
Cab@@
Bern@@
betra@@
checked
Sierra
OK
grammatically
Corporate
play@@
Suites
teste
execution
CN@@
Verein@@
Explorer
strictly
trav@@
alcohol
lien
14.
contextually
krise
trat
affects
Eri@@
stayed
superior
Sohn
Schlusselwortern
Symp@@
stieg
Motor
König
Benutzung
fangen
grammatisch
luss@@
Kompetenz
Equ@@
negativen
perfekte
denjenigen
Hindernisse
Ah@@
cious
selb@@
alisiert
kontextuell
dio@@
garage
xen
gnissen
Schön@@
begleitet
Schlusselwort
Schlusselphrase
Fir@@
airports
NO@@
Luxemburg
Mechanismus
reck@@
wes@@
manual
edited
Hinweise
Kategorien
Polizei@@
Schönheit
clarify
executive
peri@@
Casa
doku@@
Fernsehen
ergänzt
engaged
holds
EV@@
klimati@@
red@@
SC@@
langer
älteren
garten
renoviert
remin@@
spi@@
61
EA
11@@
besu@@
beenden
wage
sleep
threats
integrate
fers
Text@@
territorial
heading
mini@@
c-@@
Kaffee
verkehr@@
kraft@@
Senkung
marine
Events
eingesch@@
Common
Cy@@
panoramic
presenting
nine
ras
konstru@@
roots
restri@@
varied
SD@@
Gay
causing
12.00
alter@@
ys@@
Jugend
isti@@
räu@@
groß@@
mittlerweile
beinhalten
pec@@
such@@
Jahrzehnten
poses
genes
erzeugen
ms@@
ci
wald
Zusammenhalt
province
sy
Indian
edition
Maschinen@@
Bedien@@
phones
gres@@
eta
teils
gültig
Culture
Bed
bett
aw@@
antes
zü@@
rolle
favourable
loser
festzustellen
geregelt
prozesse
compulsory
Der@@
klassischen
Kohäsionspolitik
utmost
Museen
angewandt
hes
aring
HU
Mandat
aling
mere
UL@@
&apos;m
europäisches
Detail
B5-0@@
Invest@@
hierzu
überlassen
highlights
uli@@
IK@@
kro@@
ativer
Sobald
antly
referring
Opera
tum
ütz@@
Oberfläche
gleichermaßen
faces
gal@@
graphics
900
Beachtung
Öl
Tabak@@
Helsinki
twice
Europ@@
Ori@@
Micro@@
BR@@
Tür
eventuell
sichtlich
praktischen
promise
Among
Bol@@
Tonnen
Berg
Area
angenehm
accidents
Koh@@
Augenblick
stoßen
considers
sin
Chan@@
kir@@
Content
gehandelt
wonach
phenomenon
pressing
Mah@@
Vari@@
Mutter
incorporated
treiben
Jugendlichen
wesentlicher
honour
fällig
stores
Käufer
ehrt
Autos
Recht@@
izi@@
Bedürfnissen
Ergebnissen
musical
unmittelbarer
Danish
quotas
Car
Komm@@
besucht
occurred
Tel
leich@@
enswert
bility
choices
medicine
Using
steigern
Schreiben
cell
äm@@
Licht@@
illegale
ansprechen
Gor@@
stant
soil
festlegen
Kern
aktuell
angenehmen
Wesentlichen
factory
free@@
teaching
offizielle
Vertretern
dieren
73
pick
heads
harmful
insist
Exper@@
tischer
Industry
Patent@@
Übertragung
anzubieten
explanation
essentially
ô@@
Stärke
lenken
Residence
hiking
EW@@
Strecke
ausgaben
vely
zige
zwingen
consequence
gor@@
Anmeldung
pflich@@
wendet
encouraged
aviation
umin@@
bewahren
adding
mouse
sand@@
Subject
aster
eigener
Wirksamkeit
schnit@@
dauer
Cooperation
â@@
SCH@@
öff@@
Versammlung
convention
meets
prospects
candidates
meals
spezialisiert
Milch@@
gehörigen
regulated
ähr@@
verletzt
regelung
Cou@@
grund@@
Finnland
Ama@@
berechnet
Projekts
türkischen
Cel@@
sible
vic@@
kümmern
herrlichen
gradually
trac@@
UC@@
Bl@@
native
wartet
student
push
CD@@
stammt
Regulierung
SE
Saf@@
reporting
Dam@@
Typ@@
soeben
entscheidenden
Treaties
decline
oms
Wohnzimmer
Tauch@@
Vice-President
vis
Haar@@
ison
Professional
Sul@@
humanitären
ão
Vietnam
Börse
geschickt
stories
grown
program@@
premi@@
tent@@
Fr@@
Herbst
scientists
76
Bag@@
Module
convergence
io
three-@@
combines
ilit@@
ska
freund@@
Datum
agents
booked
akte
Autobahn
wechseln
Höchst@@
befasst
Potenzial
finanzieren
succeeded
ø@@
exact
stammen
eria
Administration
Hamas
geber
-up
Satelli@@
stunning
Port@@
Verwirklichung
Ke@@
shift
surprised
sitzen
repair
shel@@
Ja@@
rö@@
urlaub
gekennzeichnet
Besuchen
Lü@@
Anonymous
stration
Fundamental
pur@@
gefähr@@
feet
Ale@@
thumbnail
Appartements
anwen@@
begins
Tou@@
Nachhaltigkeit
iges
Investoren
stick
sty@@
bru@@
FA@@
Führer
infolge
Verbraucherschutz
engage
prin@@
30.
spät
Ausbildungs@@
gefährdet
Ersatz@@
folge
permission
ases
Panoram@@
Direkt@@
Umweltfragen
pap@@
Vie@@
tnissen
schö@@
Unterkünfte
Kandidaten
Energieeffizienz
wirkliche
Zürich
abend
funktion
observed
acquired
Renn@@
V.
colors
Betriebe
tionary
illa
bedeutenden
produkten
Außen-
rupt
Schn@@
Innovationen
gross
reputation
seats
keys
mögen
gelangt
gesam@@
Archi@@
außen
Apart
visual
Dass
anzunehmen
klassi@@
günstige
Ausarbeitung
riding
Nor
oring
Presse
resulted
PA
lichsten
variable
sson
operator
lier
HD@@
lehr@@
Nichtraucherzimmer
Verzeichnis
UNO
Eur@@
Gibt
gewählten
specialists
habit@@
collec@@
prosec@@
aire
Golden
attend
zia
Reser@@
See@@
passing
prisoners
Ven@@
zeichnungen
Lon@@
by-@@
airlines
Top
Messe@@
dateien
vergleich@@
fiziert
Vermittlungs@@
Lux@@
fing
schwierige
purely
ill
contrac@@
frem@@
Jedoch
forth
Mark
sauber@@
Auftrags@@
Fehl@@
Lesen
College
records
amended
Wandel
ausgewählt
Dokumentation
bringung
aut@@
Tsch@@
programmen
fro@@
Further
ean
any@@
bungen
Saison
fügt
jedenfalls
Small
broken
ht
Euch
Gemeinschaften
itable
design@@
frequ@@
Eng@@
Flughäfen
construc@@
participating
müssten
absch@@
ergänzen
jour@@
thi@@
aches
prote@@
mäßige
Pflanzen
bte
Prozeß
Herz
bemerk@@
Freund
vorgelegten
Leit@@
krimin@@
4-star
Warcraft
diplomatic
cas
pace
engli@@
SQL
Urteil
Wirtschaftspolitik
hypo@@
Lor@@
gam@@
sn@@
wu@@
Baby@@
vorliegen
widespread
Audi@@
specialized
Rech@@
müsste
vention
virtually
casino
Berge
nehme
Arbeitnehmern
kilometres
eingebracht
dispute
boats
bot
Staats-
Vertrag@@
surprise
cin@@
tiz@@
beu@@
Team@@
EZB
geliefert
hole
crew
Mod@@
feh@@
Weil
developers
Free@@
prozeß
taining
forschung
porting
ve-@@
string
ose
inn
Renten@@
vorzunehmen
Saddam
ziger
catch
bewerten
lian
geführte
Academy
losigkeit
lieben
Gewal@@
recording
jk
lis
schein@@
Argumente
Zypern
prison
rot@@
ily
pot@@
festi@@
glo@@
Form@@
betrieb
Netzwerk@@
gänge
Afri@@
Zw@@
erstaun@@
Maß@@
preserve
Direc@@
Span@@
ever@@
sessions
stran@@
TA
picturesque
Access
Wellness
Verkehr@@
sterben
Tieren
layout
Plug@@
Sonn@@
Entfernung
organise
boost
narrow
60@@
Dach@@
Authority
seeks
Speicher@@
Kampagne
beeinflussen
urgency
struggle
achievement
medicines
Ok@@
eo
Betreuung
78
Dro@@
cla@@
errichtet
Hän@@
eless
dest
yard
Bereits
typischen
enforcement
Annehmlichkeiten
Todes@@
transfers
Lat@@
entfernen
Ansprüche
Andre@@
sophisticated
miss
frühen
2nd
lierte
schemes
distur@@
conferences
past@@
Wen@@
sischer
ologisch
prü@@
hidden
permit
incentives
Director
projec@@
innov@@
Cho@@
Appartement
knapp
Alexander
shortly
Stock@@
BS@@
kurs
tigkeiten
anwenden
tile
closure
loading
betrieb@@
array
sektors
Abfall@@
zweifel@@
langfristigen
implications
rank
Investment
i-@@
stechnik
derte
wahr
stätigkeit
Übrigen
ungser@@
Mart@@
conciliation
ray
statten
encies
Imp@@
350
ansehen
constitu@@
dation
Tal
Fläche
gegebenenfalls
negotiation
Got@@
Wiederaufbau
human@@
Phili@@
ratification
camp
oftmals
Az@@
roof
GR@@
Porto
ici@@
anz@@
maxim@@
retain
schwere
ausüben
teachers
sexu@@
Mass@@
Gewinn@@
Weiterentwicklung
iel
bun@@
Bom@@
navigation
netz
mers
AP
Portal
bü@@
verse
sab@@
Civil
bewußt
Internetzugang
endet
hopes
troops
manu@@
Holz
beantwortet
verringert
vable
abri@@
Pension
bou@@
Unions@@
grünen
revenue
wonder@@
producer
aj@@
Hard@@
verwal@@
vorgestellt
CR@@
Religion
Fire@@
geschlossenen
Regional@@
Doppelzimmer
Modernisierung
Kapital
Ve@@
Räume
constructed
Terms
Rent@@
überwachen
bearing
scheduled
blin@@
director
Chem@@
polis
tö@@
Urlaubs@@
dumping
verstehe
professionelle
cr@@
Differ@@
CL@@
eliminate
diff@@
minor
seiten
19th
verwendeten
proc@@
rad
compar@@
Storage
Häuser
know-how
associations
Errichtung
percentage
Jac@@
Glauben
Drittel
Mittelmeer@@
decade
74
Sektors
beseitigen
500@@
Mängel
ousness
Parti@@
geblieben
liger
eingeleitet
5,@@
Är@@
Nikon
sidenten
Präsenz
objec@@
ändert
woo@@
bild@@
ington
wander@@
strukturen
digungen
Modul
Gesetzes@@
opens
flug@@
erteilt
Entwickler
cip@@
governing
num@@
sequ@@
Sonntag
Grundlagen
ärer
Rand@@
bay
Journalisten
Studi@@
iling
communicate
Gau@@
folder
armen
var@@
magazine
Kooperations@@
landwirtschaftlichen
Sup@@
ght@@
newsletter
Erst@@
lten
staying
neighbours
Sound@@
denkt
Werden
assigned
Fron@@
ats@@
hinweg
Vorstellungen
Danach
Rh@@
recognize
suff@@
klasse
Strände
Intergovernmental
lim@@
wort
promises
calm
Anim@@
Oliven@@
Symbol
hervorragend
kungen
conver@@
öl
plug@@
MP3
netz@@
unnecessary
Chile
atom@@
musi@@
Ashton
beln
Erzeu@@
trou@@
scho@@
Eth@@
Basel
stem
alitäten
Vereinigte
homo@@
Allah
rad@@
pilot
ples
versammlung
gebühr@@
weak@@
repeated
Joint
Angel@@
Foto@@
Software-@@
sorry
inadequate
evident
multilateral
emen
sied@@
Konvent
Wohnungen
kter
Fluss
Peti@@
Florence
kostenlose
verhältnis
bewer@@
fehlen
gerechte
aufbauen
QU@@
olive
Safe
benutz@@
Versicherungs@@
parlamentarischen
87
prohi@@
schw@@
arm
fewer
selec@@
ager
Burma
ories
hou@@
loaded
constitutes
Coun@@
html
entliche
mehrfach
Dänemark
buses
wooden
fot@@
begrün@@
exemp@@
ment-@@
agi@@
Intelli@@
Travel
stet
zahlungen
angehen
lit@@
Rechner
lla
gia
Einen
manchen
bug
ship@@
Cuba
verständlich
extending
Search
üb@@
lüsse
Bour@@
imperi@@
Operation
klu@@
deserves
stake
IV@@
UR
Katalog
Fahrer
veränder@@
timetable
Employment
Revision
Firefox
fes
komp@@
Ticket
nä@@
suche
wertung
appro@@
var
gastronom@@
gesetz
crises
toward
discount
zah@@
Inst@@
xis
umgehen
sent@@
shore
snow
Ner@@
Verbrauchern
tar
Richard
maximal
llen
Samstag
Fei@@
gast@@
SAP
Album
Akteure
loo@@
initially
DER
dien
hinzu@@
desirable
tious
.net
BM@@
Wasch@@
ließen
relationships
solved
Nigeria
Typ
Stamm@@
outs
differ@@
atur@@
bearbeiten
aufzubauen
Zimmerbeschreibung
tant
decre@@
alongside
low@@
Hardware
Mexiko
dend
solar
Govern@@
Nat@@
rali@@
hills
Wild@@
bten
clock
indoor
Nizza
ruhige
willingness
akes
ENT
progres@@
interne
vierte
stische
81
enne
capabilities
kolle@@
grenzüberschreitenden
examination
financed
approaches
dial
tagen
italienische
erhoben
volles
hinaus@@
Pacific
hop
fan
äumen
Können
Frequ@@
sers
verbindung
radik@@
considerations
porte@@
onal
längst
Ausbau
Wednesday
expense
composition
vacc@@
tags
digitale
Patten
sz@@
finanzi@@
Mädchen
gemeinsames
employed
completion
smooth
terror@@
Visi@@
Amerikaner
Ratifizierung
verw@@
anniversary
dire@@
kle@@
bahn@@
Truppen
Kommentare
superb
drin@@
instantly
Fur@@
kennt
reagiert
neun
Anmerkungen
Traditionen
busy
acks
campaigns
peti@@
Reserve
gesellschaftlichen
chairs
Constitutional
Palma
25.
Zuge
definieren
inspired
moderni@@
bedürf@@
Werten
hinzu
commen@@
addressing
Scho@@
Cock@@
Spezialitäten
Objekte
ov
Glei@@
Zwar
meister
maybe
Fisheries
Find
saf@@
clicking
offenbar
kür@@
Human@@
Seg@@
Sound
Nokia
versteht
chtigkeit
momentan
Department
FI
mische
Sowohl
IX
girls
eries
branche
instrumente
Sachver@@
Auflösung
baus
istisch
hungen
studied
charm
Vordergrund
arranged
mag@@
DV@@
DR@@
Meg@@
Bildern
Nehmen
Ägypten
concentration
exposed
uring
Account
GAP
schwedischen
ausser@@
reis@@
chapter
andal@@
references
chts@@
preferred
iring
appointment
ech@@
Anbetracht
nahme@@
zugs@@
behand@@
Bran@@
83
flat@@
gesichert
Marken@@
Ablauf
Lernen
frequency
electrical
enjoys
Black@@
Society
Make
hä@@
debating
Internal
itation
stam@@
UNESCO
weilen
codecision
popul@@
beer
Read
ierungen
Full
certified
Updates
generell
Aspekten
thorough
roll
believed
geograph@@
arium
Transfer
löschen
Konvention
Pir@@
Viel@@
alisierte
IM
Valencia
M.
zusehen
Bestätigung
planen
Ausweitung
instru@@
LT
blan@@
Science
palästinensischen
stal@@
west@@
Quell@@
Niederlande
veröffentlichen
Betrifft
ökologischen
phy@@
delete
Ken@@
Wegen
Serbien
miß@@
smoking
prefer@@
violation
vent
complaints
ore@@
Connec@@
von@@
Stell@@
bürokrati@@
world-@@
í
By@@
hilfreich
Erwachsene
shor@@
Ly@@
weltweite
beteiligten
geniessen
keineswegs
hur@@
CF@@
vollem
richtungen
2015
stimm@@
ausgehen
Erreichung
märkten
Ange@@
travellers
Children
eben@@
Gebühren
wächst
legitim@@
ungst@@
Orten
genuinely
oldest
Schei@@
Völker@@
examined
partial
empty
H-@@
Die@@
gesucht
effizienter
commit
wur@@
KDE
zahlt
Vorsitzenden
repe@@
withdraw
signing
ares
stens
zel@@
glie@@
Sekunden
kamp@@
Beru@@
Vorrang
wä@@
Metro
nutzt
noon
suited
ingredients
enger
Kennzeichnung
forming
Jerusalem
ign@@
agne
paket
fern@@
schriftliche
technique
Rechnungs@@
intensiv
chairman
Slovakia
foundations
Hum@@
gestatten
HD
luss
Wissenschaftler
regionen
sums
ownership
Several
chron@@
erteilen
erh@@
Uns
Immobilien
Fassung
arischen
observe
exec@@
whereby
zierung
Aussage
Widerstand
garanti@@
werks
hochwertigen
acqu@@
Jon@@
î@@
kunden
alisi@@
gefährlich
betre@@
Insgesamt
gering@@
Spitze
trained
Edinburgh
condemn
ood
ücken
studi@@
betriebe
Behörde
Übergang
Statistiken
openness
thri@@
überzeu@@
üblichen
Bestellungen
herstellen
partic@@
issen
mäßigen
wind@@
enhan@@
Rin@@
Sky@@
Wichtigkeit
il-@@
1.5
südlichen
zweitens
bought
GA
Riviera
günstigen
seemed
accounting
optional
height
ae@@
Tarifa
Erlebnis
chemische
Greens
Armen@@
desto
regierung
Eines
respects
Cr@@
autom@@
gewöhnlich
radical
Lom@@
theore@@
vos
cancellation
ept
stag
Bücher
vary
eland
rän@@
tut@@
WTO-@@
Line
Sens@@
Filme
Otherwise
adventure
gegenüber@@
Zwischen
Ausrüstung
OLAF
mixed
gon
umgehend
false
economically
Lis@@
Work@@
Poker@@
aktualisiert
kräften
attri@@
cky
Morocco
Downlo@@
konsequent
Genau
fünf@@
beabsichtigt
poorest
repeatedly
tiere
vocational
describe
power@@
communic@@
Rü@@
zusetzen
vorsch@@
kanische
Hen@@
labor
teu@@
speeches
secondary
Andalu@@
Klarheit
Aktu@@
ständi@@
Durchsetzung
Garantien
Nichtraucherzonen
begun
ho
residential
Feu@@
Jer@@
tags@@
ünd@@
stätten
Schüler
entsch@@
harmonisi@@
loses
Louis
Michel
caf@@
ahn
organiz@@
Dresden
URL
Argument
Einer
verbreitet
revolution
Atlan@@
coastal
expand
cken@@
mel
freier
Ref
nächster
sozial@@
professionellen
anzuwenden
180
sizes
gesetzten
elegante
Entschlossenheit
Sied@@
pft
diving
ad-@@
Macht@@
beibehalten
iens
besonderes
hinzugefügt
Pflanzen@@
translated
lio
SK
sozi@@
technologie
quellen
schalten
verurteilen
Lap@@
accuracy
Distribution
herzustellen
Franc@@
amp
proz@@
kohär@@
guaranteeing
alli@@
moreover
dei
Amts@@
elektronische
Kompetenzen
existieren
widmen
Ech@@
Satz
Universitäten
ultimate
beach@@
gemütliche
gewidmet
getreten
Nord
ungs
Bevor
charakter@@
contra@@
cookies
nei@@
möglichkeit
umfassen
compete
deck@@
logo
thaus
afrikanischen
110
Deb@@
RS@@
Ferienwohnungen
Souveränität
deadline
ex
papers
forwar@@
Vic@@
achtet
tolerance
Wahr@@
ank
alternatives
posts
tac@@
bien
genau@@
welle
Ehre
accordingly
nar@@
Swi@@
K-@@
Reinigung
Haf@@
Einsatz@@
wai@@
informal
boasts
til
Regen@@
grund
Philosophie
integrierte
ghter
influ@@
iron
sco@@
Three
halt@@
sien
trags@@
Existenz
auswählen
intentions
funded
dien@@
Häfen
evol@@
foremost
wick@@
fresh@@
TE@@
d.@@
Herkunfts@@
clarity
Inn@@
Pot@@
ück@@
wissen@@
projekt
Felder
Erfolge
befürworten
Europa@@
ologischer
fahrzeuge
band@@
tains
Ay@@
Ehr@@
Boot
setzte
Glück@@
häl@@
listening
Stiftung
Lohn@@
underlying
collabor@@
Kürze
erheben
Zeitplan
escape
domin@@
bed@@
gab@@
Non-Smoking
Diesen
Netze
Wähler
fire@@
ov@@
poker
Ideal
eien
erwiesen
dist@@
Together
sely
Fischler
measurement
enormen
Himmel
afraid
Solana
appar@@
stur@@
lierung
zweiter
1988
erkunden
kleinere
hohes
Fabri@@
Haushalts
inspection
elec@@
Schaden@@
Edel@@
kostenlosen
bedroht
guar@@
venue
Main@@
lement
Festplatte
innovativen
Entwicklungshilfe
External
ids
cope
31.
schutzes
Vorgehensweise
gy@@
concert
ción
purchased
LAN
würdigen
Nachdruck
eding
less@@
gin
stärksten
incorpor@@
IMF
desktop
Ausblick
Denken
klären
Besitz
legitimacy
ethical
günstig
ausgestattete
Besonder@@
Betracht
oppose
ardi@@
Billi@@
Il
Kopf@@
Weiterhin
jurisdiction
revised
genauer
-und
zugeben
ization
Bekann@@
Leben@@
Werkzeug
solch
sever@@
Adri@@
Hof
falsche
vertrau@@
Stri@@
Migration
Tol@@
Wand@@
6,@@
Problematik
Schulden
deiner
Zielsetzungen
paths
Slowakei
beef
20th
ized
becken
künst@@
uneingeschränkt
subsequently
ly-@@
Gas
hafter
terrible
pes
vertritt
auswirken
Premierminister
losing
ental
¼
kund@@
E-Mail-Adresse
reibungen
Airlines
früh
verursachen
Minister@@
sample
gels
BA
answered
flexi@@
tender
Montenegro
Ran@@
erstes
Entwick@@
dollar
tax@@
A.@@
Fang@@
politiken
erarbeitet
Heads
ede
accessories
fik@@
bots
Original@@
Protokolls
Einzelheiten
spanische
HIV
berich@@
spectrum
Verwal@@
rieren
hence
tragic
LIN@@
verl@@
Kommun@@
vertraut
Aktien@@
schü@@
respektieren
whatsoever
stern
endor@@
cit@@
formular
vorliegt
Wahrung
comparable
jointly
ype
vice
pas
tätigen
delays
tivity
ems
funden
finanzierung
GUE
baby
Leipzig
24.
án@@
sitz@@
gewicht
managers
over-@@
utt@@
transaction
Program@@
wife
Antri@@
Series
fft
wirklichen
occupation
oli
dent@@
Brand@@
gige
förderung
Gruppen@@
verla@@
offiziell
Miß@@
funktionen
erwerben
dramatic
moments
Schulz
wand
Moder@@
enjoying
Cop@@
calendar
größter
erend
östlichen
adult
tragedy
ires
classical
teilungen
reit@@
flexibel
endgültige
unterschiedlicher
journalists
Ruf
höchst
gegebenen
affecting
aking
os@@
anst@@
unterbrochen
öffentlicher
Real@@
Offenheit
Kenntnisse
Mittelmeer
dependence
mass@@
summ@@
ahnen
W-@@
publish
Copyright
Übersicht
städ@@
Venedig
Ausnahmen
modify
full-@@
SL
bekann@@
doubts
remarkable
avi@@
potenti@@
änder
klin@@
stattgefunden
Lehrer
fortsetzen
transitional
sional
Chairman
poll@@
pensions
theatre
Performance
textile
Tun@@
EG-@@
Ursache
predi@@
destroy
isse
entran@@
gehörige
brauch
gestiegen
Erarbeitung
expressly
bud@@
expanded
Modus
äden
weichen
anzupassen
Fortsetzung
Lebensmittelsicherheit
no-@@
ckets
gelegene
Betreiber
EIB
plate
Inflation
Kle@@
kompliziert
Export@@
Spaziergang
alise
afford
new@@
lass
Engineering
überrascht
erheblichen
Fleisch
gerei@@
Verfahrens
cop@@
manufactured
Rechn@@
beweisen
ehemalige
stressed
Wit@@
Wind
Kit@@
width
Marco
zugestimmt
bigger
assurance
Bla@@
autumn
crow@@
Sab@@
DC
Lot@@
Hit@@
Source
Filter
mung
Av@@
TV@@
stechn@@
reibungs@@
Representative
130
religi@@
hundert
Landwirtschafts@@
reads
linge
kün@@
Zuverlässigkeit
custom
kit@@
Woh@@
hotel@@
A4-0@@
Ausrichtung
splendid
refused
ups
ry@@
obligator@@
erkennt
portra@@
drückt
igungen
geringen
up-to-date
Ingenie@@
Gute
erwähnten
mechanical
medieval
blind
Km
berichtet
Themen@@
Inhalten
matic
cancelled
orie
Australien
advise
agu@@
veran@@
Palette
bewegt
commerce
nes
victory
League
ständiger
erforderliche
bits
Joseph
lock@@
seln
standes
regionaler
ign
neg@@
tribute
ME
Empfang
Alternativen
arily
Keine
übermitteln
ähnlichen
strike
vie@@
Bit@@
arbeitungs@@
Chancengleichheit
Volkswirtschaften
refuse
healthcare
counts
Automati@@
Gegner
gestartet
zustande
divi@@
geous
bi
Saint-@@
zin@@
nötigen
ausführ@@
angenommenen
ideally
erfol@@
honest
ao
expenses
Herr@@
Verkaufs@@
ij@@
representing
key@@
Know-how
staat@@
vermittelt
declare
promoted
berger
Effekt
arrangement
Experi@@
gon@@
Arena
Sem@@
viable
environmentally
lights
Cl@@
mensch@@
datei
Drogen
rufe
hell
Empire
anten@@
Laden
angebote
Seiten@@
mäß@@
suspended
einiges
vorge@@
convert
PM
wehr@@
verbindungen
Tampere
falling
allo
üh@@
Tabelle
84
ín
vi
sunny
diver@@
elli
Run@@
Düsseldorf
Spor@@
Kein
Massage
Derzeit
ktiv
ausländischen
erleichtert
kit
Sun
schar@@
Zeu@@
langem
verwen@@
1986
stopped
angle
zip
Café
erarbeiten
continuously
gues
unch
Mé@@
CA
Edi@@
erklärte
deserve
abe@@
Stur@@
schwan@@
gemütlichen
earn
olo
ket
lively
ope
ati
verwiesen
maß@@
verabschieden
segment
Ima@@
terminal
fairen
viewing
mile
biom@@
Zivil@@
gepf@@
annt
entstand
Aufhebung
recall
geschäft
parameter
Go
zimmern
beispiel@@
berühmte
granting
fat@@
standardi@@
bruch
Service@@
baut
Aussagen
tatsächlichen
ille
Wünschen
suggests
conversion
gur@@
s-
Bak@@
Hör@@
gü@@
getrennt
deutliche
Verordnungen
secondly
maßen
importantly
dian
Mir@@
fascinating
Ms
Monte
ktur
ichten
technischer
kriterien
arbeiteten
Verteidigungs@@
Gottes
Wie@@
Over@@
300@@
swi@@
Bürokratie
characteristic
esc@@
Galileo
Fig@@
Tickets
Garten@@
KG
Weiß@@
Immer
Versand@@
signals
Labour
BI@@
blicken
quantity
freight
Partnership
removal
Rit@@
frü@@
Krieges
kapit@@
devoted
nobody
relaxed
affordable
carte
Ausgrenzung
Taten
chi
tips
eindeutige
basically
ceiling
orientation
Docu@@
sport@@
iPod
Frauen@@
closing
simultaneously
Level
Contact
tung@@
Heimat
Verfahrens@@
bedauerlich
rated
certification
ffs
Formul@@
Rock
sprä@@
angeb@@
bewertet
artige
fifth
drop@@
gence
smart
Wich@@
änge
mechanismen
Finnish
Modern
Jewish
ago@@
bon
präzise
Alps
zugelassen
Gemeinden
leistet
vorsieht
rev@@
affili@@
Hein@@
bran@@
D.
liz@@
excursions
Klassi@@
Brücke
geeigneten
behauptet
Beschränkungen
ratified
Quark
verpflich@@
forgotten
Strom
gemessen
dienstleistungen
absurd
Urheber@@
bewus@@
fungen
Rechnungshof
beneficial
ke-@@
Siemens
aben
Mittwoch
kombiniert
principal
Bureau
Kau@@
zentraler
Steigerung
komplexe
gemeinsamer
Presidents
mid-@@
wel
Export
menge
vermieden
PPE-DE
Super
ña
aush@@
Abbau
befürwortet
Bürgerbeauftragten
residents
postal
GT@@
instruc@@
depth
sender
Minibar
fragt
üsse
fell
authors
privati@@
Jean-@@
Nordic
spots
Steuer
fter
lassung
verbreit@@
pain
horse
integrity
öse
geren
vertrauen
toilet
mechanismus
installations
Ministry
arrange
icht
logic
Dur@@
Werkzeuge
Roth@@
atri@@
chat
stren@@
nich@@
Tief@@
dring@@
begegnen
Plätze
übt
han
notified
1980
Dynamik
dieselben
angekündigt
fuhren
judge
perpet@@
civili@@
tropical
Kie@@
ehe
gewünschte
geehrte
Schle@@
Komple@@
umfangreichen
änderungen
vals
subscribe
22.
taus@@
perio@@
specially
ample
Minderheit
Audio
schedule
der-@@
trei@@
deci@@
mines
ris
Ky@@
exist@@
wheel
Speci@@
pay@@
natur@@
icht@@
high@@
gift
Verheugen
branch
lette
anpassen
Stahl@@
grenze
könne
Zweiten
undertake
quest
Youth
arts
Sports
verstän@@
Anträge
Verabschiedung
Klimawandels
prob@@
apparent
acceler@@
bac@@
Green@@
stein@@
verarbeitet
derart
zeigte
broader
ignore
Distri@@
mur@@
fix@@
g.
vere
Abteilung
derselben
gieren
Abgeordneter
zero
preparations
renewed
releases
asset
loans
medizinische
dimensions
Big
destinations
Times
designer
authorized
teuer
Privatsphäre
Rural
wise
preserved
ien@@
Jahr@@
kurse
mand@@
alled
Ford
Lager
gebühren
davor
margin@@
turns
Brü@@
Hafen@@
zwischen@@
stering
inclusive
downloaded
Library
gebäude
viewed
motorway
vac@@
Stau@@
Binnen@@
berührt
spüren
Liberalen
gehe
Santer
Sieg
populations
Oli@@
Ander@@
institution@@
Schnell@@
Glau@@
fuhr
typisch
Alters@@
verzer@@
Kommissionspräsident
ea
trains
Francisco
tigte
innere
gerungen
anerkennen
focusing
visits
herrsch@@
survey
Moscow
Haiti
Block@@
Nachmittag
catalogue
tension
shing
credible
buying
Foot@@
Schau@@
Bay@@
niedrigen
zurzeit
Besu@@
ansch@@
Lieferanten
fertigung
certainty
alls
Select
pic@@
kurzer
thro@@
duration
stops
Al
gebung
Rennen
inneren
Soldaten
rub@@
FC
Solar@@
Erhalt
verzichten
Fischereipolitik
debated
trouble
Lud@@
UP@@
Gewi@@
komplexen
Lateinamerika
lebenden
observation
fitted
Konzer@@
Eröffnung
violent
ool
archive
Excellent
zweck@@
Growth
Lun@@
Bek@@
Hände
drängen
Angabe
Cit@@
cameras
interess@@
Weine
audience
mini
wirft
Funktionieren
komfortablen
negotiated
mir@@
position@@
felder
ierungs@@
eigentliche
Schmi@@
Phi@@
xel
küste
einhei@@
composed
ened
chemicals
Set@@
bak@@
Samsung
Schwellen@@
Bauern
Everything
nationals
Comple@@
Ach@@
prinzip
beruflichen
sibility
feder@@
evi@@
iner@@
supplementary
evaluate
Jesus
ffe
attra@@
Georgien
posted
bonds
handels@@
Wellness@@
Autor
Südafrika
prevented
Palestinians
79
Past@@
verschaffen
führungs@@
featuring
organis@@
knew
Muslim
Mar
Event
Ereignis
rela@@
Betrach@@
indicators
fantas@@
eröffnen
eleganten
jährlichen
sake
scar@@
bank@@
Für@@
sofa
belongs
Southern
methode
zierten
Zunahme
relief
tone
zy
schenken
marktes
dieselbe
24-Stunden-Rezeption
ault
Deposit
organize
weit@@
Fisch
integrieren
Schicksal
Menschenrechtsverletzungen
telecommunications
attended
å
gehabt
abgeben
t.@@
centers
behandlung
gegenseitigen
geringer
Umstände
empfängt
prize
short-term
marking
Arab@@
schwi@@
neighbourhood
creature
23.
whenever
arrest
Asi@@
alisierungs@@
Südo@@
applicant
enor@@
surveillance
necessity
ecks
traum@@
erweisen
aching
lining
pair
mmen
relevanten
Beglei@@
geisti@@
Ausbeutung
tariat
yo
ador
angenehme
dahin
Begründung
Meinungen
prospect
tigten
normen
admit
explicitly
venture
maps
Max
Stan@@
fikation
mandatory
feedback
electoral
imported
Burg
blick
begründet
specify
Bergen
Mobil@@
wunderschöne
nü@@
lusses
dasselbe
insufficient
certificate
authorised
1985
planung
Wichtig
endgültigen
formuliert
ury
oli@@
Arch@@
ih@@
agen
rene@@
focuses
DN@@
ruppe
Augen@@
moderner
besser@@
Wett@@
Übernahme
einstellen
missed
identification
pol
plane
ware@@
GP
Bevölkerungs@@
bird
Provi@@
sensor
izing
terung
Zerstörung
interessanten
xed
iet
Clubs
ursprüngliche
sicherer
bureaucracy
Installations@@
nicht-@@
höchster
frequent
negotiate
thei@@
researchers
tial
brands
Erzeugung
Fremdenverkehr
einführen
Wettbewerbs
GM@@
tion-@@
territories
fare
tonnes
whe@@
neutral
1987
Doha
Baum@@
herrschen
Händen
abgegeben
Energiequellen
Inc
erlassen
leichte
kräf@@
aufnahme
teln
employers
finds
Until
Water
terin
mittlere
Kapazität
überwacht
persi@@
Corporation
Order
Glob@@
isierung
Funktion@@
gingen
Stufe
Wäh@@
ausreichende
Raums
uncertainty
relate
tigh@@
gradu@@
gla@@
Schil@@
lica
Menschheit
Avi@@
distinction
thers
trenn@@
gerechnet
gravier@@
verteilung
leh@@
labor@@
Sex@@
entspann@@
schnitt
Anreize
transit
sul@@
pack
tten@@
Proz@@
Wissen@@
öffnet
greenhouse
ful@@
Schü@@
holder
freu@@
engen
schönes
Schie@@
äuß@@
Rußland
adjustment
diagno@@
redu@@
GO
umso
Gui@@
para@@
würdi@@
inspiri@@
Gesicht
eure
steuer
Sicher@@
basieren
Formulierung
ressourcen
magn@@
dog
Engli@@
späteren
medizinischen
streben
interven@@
Islam@@
gerechtfertigt
meldung
Beschluß
Menschenrechten
hing
xe
ax@@
Brow@@
Elevator
wünscht
passieren
Mischung
Satelliten@@
Handlungen
aled
tia
connec@@
aufgeführt
patents
hire
GPS
Zus@@
Funktionalität
machinery
replacement
mün@@
ehrlich
schätz@@
facilit@@
cles
Bewusstsein
läufe
durchzusetzen
realisiert
worrying
coordinate
cir@@
bag
hang
Patri@@
instal@@
rums
tausend
farms
zzo
CO
Zucker@@
zeichnete
plätzen
occurs
Press
Inv@@
herum
arbeiter
Freizeit@@
conventions
UK@@
Chin@@
Spre@@
Versorgungs@@
lossen
einstimmig
erstens
deaths
eve
privileged
proximity
progressive
IBM
kte@@
Bezeichnung
Terroristen
Verts
ali
Visa
geringe
Kurz
Insel@@
abgesehen
inakzeptabel
mon
histor@@
Szen@@
Sä@@
agrees
utes
automotive
gestal@@
Händler
tiker
Wiederherstellung
allocation
inci@@
DS
erie
nem
Anbindung
sonstige
wachsende
Prof.
Bauern@@
Beratungen
Beschwerden
milit@@
v.
Ordner
edy
lei
Automobil@@
Finanzen
univers@@
Blair
drives
Tari@@
bahnen
verarbeitung
Schutzes
Seele
ution
chose
Bab@@
unde
Bett
bewegung
Herkunft
genießt
thanking
tradition@@
onds
sey
Zurich
angegebenen
Versprechen
timely
fails
resul@@
occupied
lac@@
iles
Öster@@
Million
Arts
Heimat@@
kostenfrei
kunde
problemlos
Verfolgung
bour@@
Radi@@
zones
mistakes
spare
unstable
maj@@
zo
ökonomische
vorgehen
chers
elen
Gaz@@
California
Kün@@
Village
schir@@
hielt
überra@@
Gem@@
vez
Audio@@
Volkspartei
.ch
empfiehlt
officially
Berei@@
Adressen
justify
EURO@@
at-@@
habt
zeichnung
Inkrafttreten
collapse
threatened
General@@
ür
Türen
österreichischen
ablehnen
heated
Tak@@
klen
Energiever@@
Anzeige
NRO
SDL
AKP-@@
unanimously
lad@@
err@@
innen@@
hört
Gerä@@
holi@@
achievements
pum@@
precision
Nation
plant@@
erstreckt
erische
angebotenen
heit@@
maximale
religiösen
Verlängerung
stützt
gelingen
bedro@@
Cologne
faire
boxes
publications
ses@@
gelernt
lös@@
beruhen
fit@@
sized
slopes
Aufenthalts@@
gnisse
Samm@@
Jugendliche
argue
IA@@
XML
Fakten
dargelegt
taxpayers
arri@@
logistics
bezogen
dauern
Produktivität
bab@@
Bun@@
returns
onia
ester@@
Zusammensetzung
aufgestellt
Beamten
Schnittstelle
civilian
tempor@@
Illu@@
vereinbarten
ktiver
beschleunigen
horizontal
pressed
emission
licht@@
Vertrieb
orientierte
industriellen
Erwägung
dero@@
Obviously
experi@@
situ@@
interactive
sandy
sogenannte
Fahrzeug
liegende
qualifications
soldiers
hem@@
movies
Mobili@@
geladen
gebau@@
austausch
nee@@
indicates
comprises
Language
Clar@@
Kön@@
dün@@
Strah@@
essing
flying
typically
comb@@
Program
här@@
eingeräumt
Marokko
ander
Tat@@
24-Hour
Gut
ßten
Demokraten
hl
Sav@@
act@@
herunter@@
kleineren
cio
rom@@
weis@@
trags
Wälder
Drittstaaten
Scotland
split
MI@@
ophi@@
Zahn@@
consistently
emphasi@@
generous
jeglicher
Einnahmen
fications
chner
arbitrary
emo@@
leihen
Betrug
question@@
procurement
ranging
placing
neo@@
1945
Wat@@
Halle
9001
Ausgangs@@
Schuld
Belastung
vereint
zwölf
Erweiterungs@@
pattern
May@@
Heating
Schulden@@
einnehmen
unzu@@
Verfasser
fts
contractual
shar@@
urg@@
som@@
Olympus
Charme
gebe
react
hesitate
patterns
promenade
promising
harm
displays
Wall
downtown
wärts
SS
precious
alien
ops
nets
7,@@
tigem
tise
Olympic
soul
unden@@
`@@
UNG
wäl@@
Versuche
zugute
celeb@@
Metall@@
gelegte
lassungen
organisierten
pon@@
symboli@@
Install@@
Original
vorschläge
cancel
Arti@@
feste
publishing
handled
rational
Lul@@
Klin@@
Luggage
größ@@
Vermögens@@
decor@@
vermutlich
Einschränkungen
treas@@
sad
intervene
book@@
Referendum
fahrts@@
Saal
geteilt
Verletzungen
geräten
anforderungen
sailing
Cast@@
Beurteilung
Register
edit
Weltkrieg
Inspe@@
Ergänzung
vorrangi@@
Monte@@
orien
stücke
sagten
Which
e-
kritischen
einzig
rahmen
IP-@@
schwieriger
heutzutage
nachzu@@
gebunden
Monti
citizenship
elderly
actor
tower
n-@@
entries
bens@@
Föderation
twin
nur@@
TM
elegan@@
Rahmenbedingungen
kredi@@
effizienten
thir@@
reflection
measuring
Bonn
Bahn
Demokrati@@
externe
Dritt@@
Ausschüsse
Rückgang
rung
Governance
eignen
Kohlen@@
breach
purchasing
stil
Val
europa
Pum@@
erien
verstärkte
erneuerbaren
tioning
ratio
rac@@
vir@@
Att@@
landschaft
läge
geplanten
DR
tels
FR@@
Strategi@@
realize
nete
Publikum
platten
organisierte
pper
tauchen
Solche
Lissabon-Strategie
mist@@
eting
Richter
unusual
tries
retten
competences
Gö@@
Co
Kel@@
eintreten
moves
emplo@@
stim@@
Gut@@
Dum@@
sq@@
Glas
luß
bisschen
eingeb@@
institute
dual
invo@@
Choose
kehr
beschließen
Grünbuch
ingu@@
ep
Sto@@
Hussein
Olymp@@
Spy@@
aussehen
terien
Mengen
Third
Köln
kunden@@
faszini@@
Summe
geachtet
Ful@@
scre@@
frau@@
gos
Digital@@
leidet
insofern
experiencing
Left
Product
Doma@@
Kuba
wertvolle
conservation
Conditions
anna
Yo@@
Presse@@
boden
Strasse
eigentlichen
sisch
the-@@
revealed
premium
License
betten
drucken
Geben
valu@@
Schö@@
automatische
ordnungsgemäß
VI
William
Wetter
spätestens
Konfiguration
respektiert
consistency
initiated
rey
30-@@
zeichneten
arabischen
sit@@
Jean
Fast
Fünf@@
sub-@@
defining
tages
überein@@
Experience
catering
lighting
tum@@
Start@@
contributing
motions
cache
Ski
Termin
entlichen
zweif@@
Freuen
Sri
streng@@
Getränke
ax
gratis
streng
ausführlich
verzeichnen
borne
crops
Dal@@
Cin@@
Fans
ausländische
Linien
glichkeit
erlangen
locate
notably
LAN@@
kommerziellen
Konflikt@@
bedauere
differenti@@
140
harbour
mid@@
dres@@
Photo@@
Feststellung
doc@@
Santiago
icon
Sitzungen
Gepäckraum
grand
Force
2.5
inhal@@
condi@@
eing
Quad@@
asti@@
ession@@
sheets
dal@@
Still@@
älter
Objekt
Grundsätzen
structured
irische
koordini@@
slowly
stays
converted
dena
29.
technologische
edly
Liberal
ION@@
Lar@@
cali@@
monuments
Intensi@@
verz@@
konzep@@
blieb
emerged
Kreuz@@
gestellte
Präsentation
demokratisch
Gewinn
Emissions@@
goo@@
rist@@
atten
berufen
provo@@
black@@
editor
kämp@@
Schreib@@
passende
Medikamente
teilzunehmen
beliebigen
aturen
eigenem
alike
exhibitions
Wireless
kä@@
cooking
verletz@@
Besteuerung
unterscheidet
Verteidigungspolitik
rol
Schwarz@@
sende
unknown
heavily
disputes
Origin@@
RSS
grü@@
Pflichten
unterbreiten
king@@
OECD
bic@@
SW@@
auseinander@@
derjenigen
Anhörung
erörtert
umb@@
pursued
kn@@
Ce@@
Nav@@
GE
glaubt
systematic
mani@@
guard
innovations
aul@@
fa
trop@@
haus@@
kei@@
lokaler
gebraucht
demonstrates
coal
Georgi@@
Desktop
jahre@@
Rassismus
staatlicher
Vertretung
fulfilled
unions
acquisition
Schengen-@@
größe
siven
zunehmende
amending
virtu@@
Chief
Ltd
sovereign
Tradi@@
Mehrwert
Bewohner
schlechte
gegeb@@
konkur@@
Abstimmungen
eted
Vul@@
suggestion
disappointed
bene
Arbeitsgruppe
9,@@
stützen
Einwanderer
wirksamen
biodiversity
recep@@
apar@@
aggres@@
sculp@@
Kernel
unemployed
betri@@
zwanzig
drinking
Syria
imposing
Tam@@
ENT@@
enheit
künfte
gewinnt
ernsthafte
leitungen
Holland
abe
Geschäften
vernünftige
warmly
dges
atively
Logik
gerich@@
Konferenzen
Palacio
acquis
exhi@@
Tag@@
fahrten
Ausübung
verpflichten
blame
settled
tranqu@@
directions
Tower
alisten
Großen
Art.
literature
Berlin@@
Prag
Deutschlands
Gebäuden
apparently
controlling
confi@@
Solutions
kreis
Steuerzahler
academic
gan
Repräsent@@
Hotelsafe
SC
decent
painting
caught
retail
m.
punkten
nieren
chinesische
Gebir@@
accommodate
announce
Index
rats
Fli@@
Kreu@@
entlich
vielsei@@
vernünftig
reno@@
gang@@
lem
Wald
kostengünsti@@
aktualisieren
weitaus
accum@@
Lithuania
airline
adjust
Hans
phot@@
Mode
hunder@@
mern
wahre
investiert
humanity
claimed
Tech
versehen
realistisch
exposure
liness
qualit@@
qui
bearbeitet
Kämp@@
konstruktive
compli@@
treaties
esta
3rd
Zimmerservice
zierte
Ministerpräsident
eingeladen
Friedens
newspaper
emphasised
schn@@
Gan@@
Gum@@
Unternehmer
flicht
jüngste
ühr@@
Editor
Fremd@@
Phänomen
bezeichnen
robust
Hung@@
rever@@
tle
Milan
favorite
fortgesetzt
Reader
chtigen
starkes
bewirken
threshold
primi@@
potentially
Brau@@
Studios
ausstattung
Prakti@@
26.
verwirklichen
Unterzeichnung
ruling
bureaucratic
pru@@
ility
Double
Konta@@
Gewinne
Energiepolitik
Übereinkommens
alists
lowing
Dri@@
Bridge
eig@@
brü@@
Einschätzung
emerge
à@@
pho@@
copies
alp@@
approx
periode
Madeira
ffer
En
schlech@@
folglich
Produzenten
substan@@
happ@@
protest
t-
ök@@
Ungleich@@
gesammelt
Fitness@@
doppelt
Kontra@@
bereit@@
Unterlagen
Yugoslavia
assured
bä@@
Vertre@@
komfortabel
Anwesenheit
biological
appreciated
facto
HP
onien
Wikicars
EIN@@
Innerhalb
Futter@@
Gipfeltreffen
lovers
tube
stattdessen
fenster
schaftsp@@
tioned
gne
History
cut@@
alarm
laser
ST

Erforder@@
Arbeitgeber
Spektrum
consult
station@@
149
rez
Mob@@
Gärten
englischen
antwor@@
terrorists
insul@@
Rab@@
Leuten
technologischen
Spannungen
FOR
anning
mp
bedienen
avoided
Peri@@
fuels
pet@@
nier
Proje@@
aufgerufen
findings
pursuant
degrees
simul@@
pling
ret@@
belieb@@
vorbehalten
Regionalpolitik
pays
Erk@@
Wesen
Tuesday
regulate
wherever
declarations
elf
ruhiger
Feuer@@
sonstigen
IWF
Subsidiarität
meantime
passion
BS
Pr@@
Bildschirm
Prävention
zentrali@@
minimal
whi@@
leather
Consi@@
drafting
poin@@
concent@@
zips
Trend
breit
Everyone
specifications
schöner
halten@@
Datenschutz
gebnis
beizutragen
thoroughly
Dou@@
deu@@
mens
namen
angelegt
wirkungs@@
abilität
nachdenken
tough
Inclu@@
agt
spektakul@@
etabli@@
Schmer@@
Französisch
Similarly
Ry@@
Gy@@
ress@@
mien
Lager@@
schnei@@
Bestell@@
winner
Look
tas
Cala
Picard
bewiesen
grenzüberschreitende
anony@@
clothing
einhalten
übermittelt
Abschluß
eingeschränkt
Os@@
Bli@@
Master@@
Tä@@
Alpen
Gebühr
ließ@@
Außenminister
legislat@@
confident
cus
flug
kontinuierlich
meldungen
sentence
esa
Gallery
Kräften
interinstitutional
onic
High-@@
fangs
1,5
deutlichen
geschafft
Gali@@
holes
rem@@
magne@@
Sac@@
sichert
vielfältigen
ausgewählten
nachhaltig
Parliamentary
sos
patri@@
inte@@
Designer
Fernseher
machten
Laut
Beschäftigten
Palästinen@@
schließe
Spon@@
ple
pak@@
Virus
geld
gericht@@
berichte
zielt
läne
Beijing
OP@@
Terminal
Osteuropa
unterstütz@@
gelegten
rücken
convince
platforms
José
Amp@@
leid
erfasst
tened
dep@@
alleine
Geräten
lichkeits@@
Konzentration
continental
withdrawal
deficits
vielfäl@@
spielte
Bewältigung
demokratischer
snow@@
Slovenia
Release
Merkmale
erwähnte
controversial
keeps
deutsch@@
afri@@
Alber@@
behavior
BER@@
Fak@@
ärmsten
Part
oberen
beabsichti@@
abschließend
ambition
erb@@
bür@@
gesundheits@@
unterbreitet
fam@@
But@@
column
architectural
Dritter
beinahe
fehler@@
Tob@@
differ
Industrial
lehnt
qualifizierte
traums
Mittelme@@
undertakings
birds
hospital
stones
tica
Sing@@
Intervention
Metro@@
AKVIS
sech@@
schrittweise
bilateralen
powered
acci@@
Diplom@@
favourite
komm@@
voneinander
völ@@
gische
Kabel@@
terer
ature
workshops
Instru@@
rest@@
Mot@@
esi@@
ide
temperatures
regrettable
eled
kontrollen
proce@@
integral
oured
partnerships
journ@@
Techniken
isten
Fußball@@
Van@@
downloading
ältere
geistigen
lichste
gefährden
incentive
state-of-the-art
premises
Additionally
Ot@@
Argentina
bindung
modernes
stete
monitored
400@@
regimes
Brok
ät
verschmutzung
eradic@@
intense
hosts
Lanzarote
Wikitravel
ebenen
ua
hn@@
gesonder@@
attrac@@
inj@@
Defence
Malaysia
wies
akzeptabel
Neues
büro
Missbrauch
Lasten
ears
noticed
aks
magic
illing
Sz@@
JP@@
28.
detaillierte
demokrati@@
agen@@
ji
Panasonic
Handy
Ferien
Krisen
Subventionen
Nonetheless
operative
activated
Bühne
normale
Gespräch
fehl@@
lowest
bibli@@
sorge
Früh@@
ruft
ratifiziert
stret@@
oter
nutzbar
legten
Fluggesellschaften
sound@@
swit@@
Develop@@
hard@@
PCs
Betrieb@@
vorgesch@@
erheb@@
supple@@
receives
ato@@
aces
Tut@@
Hou@@
kap@@
ligt
Fair@@
bürger
lüssen
deliber@@
preliminary
mini-@@
ESS
IR
Gemü@@
unding
reas@@
Clearly
substantially
ules
360
tec
probieren
ösen
einzugehen
rage
solven@@
Process
Vene@@
Visit
Hunder@@
bestens
beeinflusst
prohibited
pet
Technical
top-@@
bags
eurozone
Beste
login
itäten
Kontin@@
silence
quot@@
Phot@@
Bosnia
Spri@@
Wort@@
Gestatten
Country
controller
etri@@
hef@@
Rac@@
veranst@@
benden
coverage
infl@@
dou@@
Aro@@
PK@@
automation
Route
Das@@
eingerichtete
Tennis@@
dachte
roo@@
statistical
gelt
alistischen
bildungs@@
Bezahlung
übergeben
Soweit
Vorgaben
Zuständigkeiten
Extra@@
bereitung
endgültig
strenge
exchanges
respectively
perspectives
ika
Christop@@
eur
kö@@
Zü@@
kampf
Konstruktion
außen@@
gewünscht
Gerichten
verwalten
zellen
undermine
breaking
graphy
Democratic
Jan
erre@@
salon
Anwen@@
getötet
Katastrophen
Socialists
dic
Goo@@
thesis
nos
Histor@@
Physi@@
concerts
affung
orienti@@
präsen@@
blichen
strengen
talked
adju@@
plates
loved
Catal@@
ingt
ös
terungen
verzö@@
handed
mic@@
angewiesen
Justiz@@
ruf
Freiwil@@
bewahrt
Transaktionen
restrict
watching
Geno@@
performing
rubber
Game
conduc@@
digit@@
68@@
Galerie
Buchungs@@
daten@@
Büros
erörtern
wording
raises
intelligence
Daniel
Features
klär@@
Heil@@
schein
erklär@@
Taste
Konkurrenz
ally-@@
agent
throw
inu@@
wen
Kaffe@@
vergeben
gangenen
ohnehin
consequently
compare
Mani@@
ftung
Öko@@
tnis@@
unterwegs
kritische
Vorfeld
ungere@@
Ministerrat
pharmaceutical
Well@@
kultur@@
U-Bahn@@
zehn@@
ausführen
Aktualisierung
artificial
aer@@
arge
neten
trennen
Unterhaltung
ungeh@@
basierte
mäßigkeit
flag
mentary
tali@@
judgment
fiel
würdig
teilte
passes
advis@@
belt
Drive
Rubrik
gelei@@
essence
choosing
tations
Her
-in
nie@@
zell@@
Kinnock
PAR@@
1979
Come
visitor
ahl
dollars
wra@@
etry
18th
Volk@@
setup
igten
Betroffenen
measured
centrally
dominant
licence
isolated
xy
Nar@@
Fähr@@
empfin@@
registriert
gefährlichen
rix
Info@@
blatt
diger
wiesen
orientierten
Profil
benannt
frucht@@
gewisser
finances
ria
CC
Tool@@
Nacht@@
Bedienung
exklusi@@
realen
unerlässlich
craft
Prize
Macedonia
PE
dat
beurteilen
Hence
pleas@@
TEN@@
ml
Tourismus@@
erläutern
Güter
practically
recycling
develops
workshop
registri@@
plötzlich
Frü@@
Konzepte
Darin
gründete
abstra@@
hed
enlarged
iche
Voyager
erweiterten
Bewertungen
Innovations@@
Aktivität
ziel
demographic
koh@@
Lobby
Ros@@
Feier@@
zunehmenden
befrie@@
Mobiltelef@@
checking
defe@@
omen
bath@@
erischen
gutem
fühlt
ennen
etzung
änderung
erinnere
chro@@
zol@@
elemente
ermutigen
expanding
simplify
tangible
gaining
churches
News@@
komplex
Wille
senior
Reich
signi@@
3000
transatlantic
CP@@
Innov@@
zur@@
Scha@@
wahl@@
verliehen
konsequ@@
Richtlinien@@
vorhin
amend
plain
wages
Zimbabwe
photographs
Beg@@
Güter@@
Sevilla
Meister@@
Koordin@@
Syrien
damaged
Jacques
bill
separately
camps
vels
zon@@
äck@@
quelle
Budgetary
Seen
authentic
ulen
räum@@
Dienstleistung
Aufnahmen
Erzeuger
shortcomings
shots
battery
uen
CH
unzureichend
auen
fliegen
austau@@
jemals
survi@@
racism
creativity
dents
silver
Lich@@
Europa-@@
como
aufgaben
verantwor@@
vorange@@
ate-@@
DP
vel
krieg
ansonsten
erneuerbare
catastrop@@
specialities
Haushalte
Verträgen
nonetheless
day@@
Pom@@
Tö@@
abhängi@@
dlichkeit
I.
pregn@@
Erfol@@
zentr@@
vertreter
größerer
Gemäß
produkt
reichung
gefährliche
rel
confusion
ignored
Profession@@
Danke
üblich
basierten
Erwer@@
struc@@
open-@@
estimate
tat
r.@@
Dok@@
Rand
brenn@@
beiträgt
fting
langes
Peace
strange
acquire
after@@
ancy
genetic
enttäuscht
protokol@@
handels
Unsicherheit
penalties
tured
Archite@@
ausgesch@@
orientiert
berufliche
Anhang
ticul@@
IL
verage
Drei
russische
Ein-
schreibt
fertigt
Äußerungen
Kandidaten@@
Simp@@
gging
foods
ttern
Studium
glei@@
Überarbeitung
care@@
ller
fts@@
Bud@@
ebs@@
beschreibt
irgendwo
Lebensmitteln
po
Medizin
führungen
konvention@@
stoß
accepts
forums
arom@@
Maxim@@
District
fizi@@
familien@@
genehm@@
musikali@@
C5-0@@
devi@@
vigor@@
defen@@
recession
UND
Korre@@
erzielten
qualifizierten
exceptions
Stei@@
tool@@
3D-@@
bedenken
ligkeit
steuerung
aded
dental
mut
nah
unterschie@@
Angriffe
Arbeitsbedingungen
ECO@@
DH@@
ér@@
CAD
Jag@@
polnischen
registrieren
angeschlossen
unvergess@@
begrenzte
Verluste
zielen
sar@@
pren@@
etr@@
derartigen
versicherung
geordnet
Vermittlung
expressing
teacher
gle@@
vern
beginn@@
en.@@
änder@@
Weiterbildung
kritisch
unfortunate
Rhein@@
27.
Zurück@@
drück@@
samkeit
Abstimmungs@@
rem
konzept
grundlegender
Kapazitäten
mithilfe
prestigious
ira
Class
FL@@
Luxus
fisch@@
Theorie
erfahr@@
Eigenschaft
Sili@@
restau@@
kurzfristig
örtlichen
interessieren
ethnischen
Tochter@@
Mazedonien
keen
lacking
headquarters
keinesfalls
Hektar
lea@@
well-being
presidential
Vill@@
Darfur
korre@@
frischen
falschen
konzipiert
Heimatland
dete@@
bone
coordin@@
Finance
Anweisungen
oul@@
einst
mitgeteilt
Referenz@@
Anregungen
rid
turing
conveniently
Kö@@
DIN
File
Anreise
Regulierungs@@
Istanbul
slau@@
geholfen
teilten
Optimierung
Mittelmeerraum
condemned
inquiry
dez
Venezuela
clu@@
Ath@@
alistische
negativ
Kirchen
dierung
lesson
outset
Dest@@
freundliches
frist
israelischen
follow-up
Karl
Hôtel
Entspannen
Beruf@@
beruhi@@
Gipfels
Gulf
ef
fizierungs@@
deutet
drafted
Pur@@
Change
dium
chens
nel
ados
Zul@@
angeben
erbaut
ght-@@
ached
Traum
kreu@@
Rek@@
Muster
fün@@
sexuellen
haftet
tiefe
mündlichen
incorporate
rom
Deep
irgendwelche
Konzep@@
Iraqi
buil@@
Consulting
aten@@
tetes
infringement
prece@@
translations
harmony
energ@@
TV-@@
spei@@
Lido
wü@@
zuge@@
Citizens
BE@@
35@@
Nom@@
Ibiza
Laser@@
wahl
kritisiert
Behin@@
rechtfertigen
rable
ver-@@
sses
theater
Alltag
Generaldire@@
Sometimes
ext@@
Ocean
simplification
gym
Interface
andt
einher@@
victim
neben@@
wendung
Flugzeug
erfolgte
beobach@@
würfe
Entschließungs@@
Milli@@
deleted
Leu@@
integri@@
treff@@
ordnungs@@
tape
benef@@
flowers
Sus@@
Ten@@
Shops
feiern
Kreativität
Haushaltsplans
21st
promo@@
Israelis
Pit@@
Call
Frühjahr
Arbeitnehmer@@
Kurse
Konsultation
worry
batt@@
voters
mail@@
Close
weiterzu@@
außerord@@
gegenseitige
Work
Milosevic
seaf@@
Stadium
dnis
stän@@
sätzen
ministeri@@
incredible
self
reiben
PSE
Mann@@
parado@@
deemed
compo@@
backs
hat@@
yment
mie
Merk@@
bilder
Verantwortlichen
beizu@@
typische
verbesserte
EMU
ggling
guides
Chr@@
widri@@
voran
Naturally
doctor
lege
Pel@@
hüb@@
Touren
Rahmenprogramm
fought
Fried@@
kommende
Onlin@@
Wissens@@
Integrations@@
spä@@
Besitzer
schlechten
nisses
Umweltschutz@@
indication
pro-@@
Roman@@
INTER@@
hoped
unt@@
Bug@@
discher
lier@@
vorn
acknowledged
Millennium
BL@@
muy
asen
Arzneimittel
schläge
Wettbewer@@
einzubeziehen
oting
politan
Muse@@
Apache
nbsp
Sper@@
Ass@@
1984
connecting
indu@@

Beratungs@@
chest@@
correc@@
gabe@@
Ernährungs@@
fold
view@@
underline
Four
sw@@
sporting
J.
die@@
SMS
eras
chambres
span@@
debi@@
solide
Leiter
eingebunden
Gefängnis
reiterate
skilled
discre@@
wars
ssa
signature
Kapit@@
Erbe
Chinas
Streit@@
partei@@
hersteller
globaler
einzuhalten
embra@@
Albania
optical
Dienst@@
ranken
Kernkraft@@
gelung
forcing
governed
searching
rob@@
enza
hiermit
sicherungen
Beruf
realisieren
Finanzmittel
entscheidet
shaped
econom@@
yang
resse
griff
propor@@
curi@@
EST
phi@@
kab@@
Städ@@
Pflege
derten
Wiederauf@@
insu@@
complexity
schil@@
Feld@@
institu@@
fate
Net
surfing
3.0
reiz@@
reverse
streaming
emer@@
administ@@
Organization
Benutz@@
Wales
half-@@
block@@
cheaper
geschäft@@
verhäl@@
Fragestunde
Textil@@
Gesprächen
ignoriert
bekräftigt
outs@@
Currently
govern@@
veget@@
Taus@@
pf
Rä@@
Ecke
bevorstehenden
vereinfachen
tionality
capture
Ze@@
kids
Namen@@
begleiten
Ähn@@
Banken@@
endem
gerweise
transformation
tailored
eas@@
CM@@
Trink@@
kommun@@
sheit
Aires
Tempo
franzö@@
blä@@
plä@@
Übersetzungen
Attraktionen
quota
acknowled@@
gst
circulation
accepting
goti@@
environments
Buenos
deck
runde
vermögen
Kredi@@
Aufforderung
reduces
CAR@@
immer@@
sear@@
Kn@@
bens
vorteil@@
zten
verwaltet
Ratsvorsitzes
describes
enters
lakes
eindrucks@@
forderte
cts
CE@@
mig@@
warming
ultu@@
450
paradise
utzen
elektron@@
bedien@@
amtierender
Schattenberichterstat@@
fault
telling
internation@@
konto
wör@@
genehmigt
meistens
centrali@@
twenty
Could
allow@@
GBP
ace@@
aciones
geschlagen
quantities
reductions
Glo@@
Flugzeuge
Lehren
rose
score
90@@
tering
ough
complimentary
Privacy
scenery
kturen
Fif@@
adjusted
mirror
Enter@@
ystem
dein
speich@@
zusprechen
Gerichtshofs
expec@@
Iranian
Products
Premi@@
weich@@
executed
abund@@
ground@@
teilgenommen
Übersetzungs@@
Entdecken
Reaktionen
survive
Easy
SH@@
Empfänger
verkauf
Legislativ@@
EU-Ebene
themes
iny
TER@@
antrag
verträ@@
Verbrau@@
indirect
plac@@
hop@@
ARE
Live-@@
Hoff@@
Künstler@@
lohnt
calculated
anticip@@
sibly
partition
breathtaking
Schwimmbad
herrliche
konsul@@
Tragödie
Fore@@
defects
té
vity
Fair
Aktion@@
vereinbar@@
Arzt
freies
thoughts
VE
circle
Itali@@
fundamentali@@
Bisher
verkün@@
Entwicklungszusammenarbeit
schützt
Verkäufer
badly
porno@@
Above
trademarks
Var@@
Cathedral
bevorzu@@
reichhal@@
womit
jeweilige
crip@@
engineers
multimedia
aktion
Erkenntnisse
lehnen
Lebensqualität
erworben
challenging
convi@@
automated
näh@@
Karriere
discipline
Declaration
Betriebssystem
ökologische
interim
tless
fiable
delicate
undertaking
Regul@@
receipt
real@@
ROM
Discover
schriften
nord@@
tägliche
gains
eco@@
ques@@
Communication
Light
samen
litten
gigen
ption
reinforce
compatibility
conjunction
fusion
distri@@
hit@@
Pass
Sant
jet@@
brech@@
agentur
gewinn@@
ktivität
beschrän@@
SY@@
belonging
deser@@
mento
usi@@
vegetables
heu@@
Hannover
lossenen
beleu@@
Metern
Vertriebs@@
Spezialisten
departments
Right
feels
recip@@
pa
inters
ava
Renaissance
Rental
Einschränkung
wenigstens
guidance
banned
rell
Vin@@
Word
teter
händler
eingerichteten
einzelner
Instrumenten
beträchtliche
respecting
GF@@
ktu@@
Realisierung
faßt
einzel@@
befürworte
grants
1970
About
flash
GP@@
Manche
Sand
Marbella
PDF-@@
gkeits@@
behinder@@
strah@@
analysieren
Auslegung
ausgewo@@
tackling
associ@@
rant
Feli@@
ja@@
hte
part-session
Natural
spit@@
lingen
Snow@@
Taxi
Überra@@
zeigten
ernste
Indonesia
bread
popu@@
Detail@@
Zit@@
ypen
Problem@@
glich@@
Lehre
Kohärenz
migrants
semi-@@
configure
bist
Zufriedenheit
vorherige
fears
grand@@
walks
Ank@@
füh@@
äd@@
Litauen
istischer
hierarch@@
listened
preferences
girl
CAN@@
Barcelon@@
kommerzielle
gebilligt
Sozialdemokraten
Palestine
returning
gene@@
Labor@@
2007-2013
favor@@
Erfolgs@@
Erkenn@@
eigh@@
ensured
Under@@
01.@@
lux@@
bezogene
fälsch@@
MS@@
tus
editing
bie@@
inen@@
bra
mysq@@
ruhe
lit
Import@@
ingham
til@@
gesetzte
Bilanz
kompatibel
Nicht-@@
schnelles
advoc@@
abandoned
Norway
Climate
Ron@@
Buffet
S.A.
zione
Display
achtung
Quoten
deleg@@
Non-@@
filling
branches
Angeles
Et@@
Classic
Herberge
Karten@@
Lösungs@@
continuation
torture
autonomy
subscri@@
homepage
Breit@@
monat@@
notwendi@@
ürzt
Mitglieds@@
defending
thr@@
erial
responses
dies@@
Abstand
gn
Andreas
sto
.The
Parks
Victoria
LCD
berechtigten
Küchen@@
denselben
chef
enes
characterized
nö@@
inbegriffen
tliches
Vergnügen
einzelstaatlichen
investigate
may@@
embedded
Wiener
Kabel
Analysen
Gewerkschaften
stritten
kompletten
failing
jack@@
profit@@
chief
fur
alla
Orts@@
vorherigen
Konzern@@
tiven
Plenar@@
conci@@
abli@@
Standard-@@
Fahrrad@@
zeitgenös@@
revolution@@
Ev@@
RES@@
lens
Montage
Rande
klarer
mining
exceed
fec@@
holders
luggage
fach
Kongres@@
zurückkehren
alogue
API
RI@@
photography
FAQ
makro@@
reformen
schlage
aps
denti@@
hyper@@
beschei@@
fertigen
Branchen
beseitigt
föder@@
enced
Section
waff@@
1978
sert
Gru@@
Wach@@
internationales
Antonio
seminars
etz
Service-@@
wolle
vergleichen
gewählte
droht
digte
public@@
bases
ston
Cube
tv
verwöhnen
Verhaltens@@
süd@@
Communist
pos
tories
ota
rhyth@@
UM
LED
Studien@@
Archiv
mals
Genuss
Autoren
vermis@@
größt@@
weißen
demonstration
ishes
cha@@
derived
theat@@
Rak@@
militär@@
Besuchern
eingereichten
ausgelöst
ausgewogenen
characterised
requiring
ners
lou@@
Spec@@
End
seg@@
air-conditioned
Abenteuer
umfassen@@
pedi@@
asp@@
pain@@
15-@@
geni@@
Temperaturen
konta@@
vorkommen
ungeachtet
auswärtige
Rezession
invitation
gged
weigh@@
infec@@
large-scale
separated
estimates
List
radio@@
rank@@
Hügel
äußerster
halb@@
pfung
hilfen
Dikt@@
gesunden
cau@@
Lou@@
Manhattan
sorgfäl@@
durchgeführten
Vertei@@
Zusammen
Entschließungen
analyses
charter
surprising
Aff@@
bauten
gelöscht
namens
spiegelt
hea@@
married
Bä@@
sitzung
Schatten
pron@@
unlike
attract
ices
Taliban
&apos;d
Wü@@
Ufer
sicherheits@@
verhandeln
Einzelnen
taught
activate
Alpine
Intel
deinen
ganz@@
exklusiven
Verzögerungen
authorisation
europ@@
radiation
discrimin@@
concentrated
Schlei@@
Technologies
tika
tiv
beeinträchtigt
wirkungen
erläutert
Verstärkung
Secretary
conve@@
Danube
Territ@@
II.
Nich@@
müßte
tons
Azer@@
upcoming
Ball@@
Textes
Diensten
unification
tells
denied
wig
cool@@
Überwachungs@@
gie@@
ähn@@
strive
pop@@
tam@@
Ann@@
bad@@
zi
Residen@@
Mountain
bration
Kais@@
Flüge
mittag
weitreich@@
verhe@@
time-@@
venth
1967
fires
Premium
Höh@@
Niemand
spruch
Grafiken
zusammenzuarbeiten
sämtlichen
gewachsen
clearer
onder@@
isl@@
mails
etic
modes
Shanghai
piano
fris@@
Nä@@
mieten
effektiver
bewähr@@
optimum
deri@@
founding
eating
equity
OM
ahr@@
Argu@@
Trends
Liqui@@
angeblich
Dienstag
PPE
novel
symp@@
geom@@
kas@@
Tennis
richti@@
Wärme@@
ständigkeit
Vorsitzender
Berichterstattern
identical
ography
ça
Mä@@
Unabhängi@@
eits@@
abzielen
survival
adher@@
bian
secured
Young
DI
Sir
funk@@
seits
begangen
Tanz@@
atmosp@@
CO2-@@
lé@@
realized
mengen
Tee
Gesellschafts@@
pursuing
organ
Massa@@
FIN@@
L.
DL@@
Dir
einheit
positionen
abkommens
performances
iti
Tochter
Mehrwertsteuer
Wartung
Unternehmen@@
flav@@
assumed
schol@@
beschreiben
überlegen
Siehe
einzurichten
interaction
ball@@
unt
provin@@
Cher@@
gefällt
geführten
Verbrech@@
railways
MAR@@
celebrate
Radio@@
Büro@@
Gegenwart
Konstru@@
nehm@@
Weltwirtschaft
ions
spre@@
Altern@@
portugiesischen
Migrations@@
Unterdrückung
Initiativ@@
unterhalten
mming
ror
excellence
cheese
practi@@
Verzögerung
öffent@@
betrag
durchsetzen
Ernährung
continually
sustained
contradi@@
CI@@
ent-@@
Alpen@@
vernachlässi@@
diensten
subsidiary
immense
Patent
toi@@
Zo@@
dens@@
visi@@
fortable
Schlag@@
fertig@@
bestimmung
Kommissare
ails
rejection
solving
notification
pact
crossing
ank@@
Whit@@
Toi@@
DIE
Wertsch@@
erhö@@
niederländischen
jects
adaptation
pin
permanently
Broad@@
query
trails
Wochen@@
Profi@@
inischen
personenbezogenen
bedauern
Weißbuch
aggressive
Conc@@
RI
kot@@
verschieden@@
Zug@@
inieren
Hierbei
desper@@
publicly
bench@@
ison@@
arrested
1975
dive
aufweisen
längere
evolution
qualitative
tail
sist@@
fel
gekauft
hinein
kultur
krieg@@
assessments
s.com
reine
erfolgreich@@
Effekte
vorsichtig
fted
doctors
Capital
fet@@
databases
Fot@@
einheiten
riesigen
Learning
Luf@@
towels
idealen
Investition
she@@
rolling
£
kali@@
Betre@@
Erste
aufwand
writer
Sak@@
T.
labels
achte
abgesch@@
Tisch@@
verstoßen
Zwangs@@
sett@@
eira
clothes
minist@@
Material@@
Fahrzeug@@
mentieren
Konjunktur@@
exklusive
üt@@
bezauber@@
Bedingung
specialised
Ast@@
solo
Certi@@
COM@@
paintings
UPS
frisch
Aktions@@
Vereinigung
gleicher
einziges
verehrten
kontroll@@
cum@@
Timor
Harbour
simp@@
amo
plugin
Steu@@
Koordination
konsoli@@
breaks
tro
Zauber@@
bliche
Vergleich@@
Jugoslawien
aufrechterhalten
Bosnien
congratulations
RE
8,@@
styles
Laeken
reale
stecken
Untersuchungs@@
Absichten
moderate
fis@@
one@@
70@@
Ltd.
wachsen@@
abwechslungs@@
tigungs@@
bewertung
Opfern
Skla@@
inning
mailing
Peru
user-@@
jet
Spring
Verhältnisse
engagiert
stärkeren
humans
Retur@@
Ambi@@
Hir@@
gend@@
aufgehoben
Vizepräsident
verschiedensten
Wall@@
rain
noisy
pets
Enth@@
Minimum
kulin@@
Marktwirtschaft
auszuüben
upgra@@
fifteen
brain
finest
Fleisch@@
kennen@@
rasche
konfli@@
Palästinenser
mentali@@
13.@@
WA@@
löst
fizieren
ausgelegt
schaden
E-Mails
wäs@@
reiter@@
36@@
U-Bahn
therapie
Temperatur
trauri@@
Seever@@
lück@@
liberalen
haltenen
bid
ritt@@
inary
unlimited
installing
presentations
ungarischen
riesige
gerechten
Swimmingpool
Folglich
Arbeitsweise
herauszu@@
chocolate
dominated
æ@@
Building
Kali@@
Sign@@
DVDs
Schnei@@
zip@@
traum
Übersch@@
officer
oth
alpine
golden
magnetic
Fro@@
dner
esten
Datenbanken
unkte
Tschechischen
peace@@
pragmati@@
landes
Superior
Logo
disch
ale@@
herz@@
engagi@@
Dach
gäbe
Luftfahrt@@
unterliegt
Stor@@
ssel
Cham@@
bal
boy
agements
Gäste@@
sendet
ssigen
Eintrag
biegen
erreichte
dged
sse@@
combining
Four@@
VO@@
camping
Stahl
ökonom@@
bricht
schlü@@
beider
versuche
Geschenk
gui@@
right-@@
Working
monthly
Add
observers
.com.
euer
zeuge
Hinsichtlich
programmi@@
gesell@@
esslich
digten
Einwohnern
observations
interview
recogn@@
Horiz@@
Stich@@
geklärt
Whirlpool
konstruktiven
Reihenfolge
epide@@
daughter
manage@@
refurbished
enorm
Eigentümer
sprachigen
inations
obtaining
ynn
consolidation
stol@@
Ess@@
degra@@
allen@@
hebt
finanziell
streichen
Randlage
coherence
Essen@@
consulted
Anna
intern@@
Granada
weis
Europä@@
wünschenswert
gesellschaftliche
Kompromis@@
Regarding
1982
preventive
permits
arte
Credit
196
eva
Brief
WE@@
zigen
Bewegungen
wirkung
Sorgfalt
kehren
Frage@@
gerichtete
regelmäßigen
supervisory
stringent
seekers
sightseeing
ministerium
zukünftig
Implementierung
geeign@@
sour@@
tip
Initi@@
zza
warranty
Panorama
angefangen
Aufwand
biologischen
investigations
dors
transmitted
orte
samer
masch@@
verhältnisse
dreht
unteren
effektiven
coinci@@
partially
lessly
Hypo@@
extrem@@
Sard@@
reibung
versetzt
gegenseitig
accu@@
teenth
emin@@
stood
jähri@@
Partnerschaften
nützliche
quarters
exploit
sincerely
Vent@@
dition
leiter
Gewinner
Gelegenheiten
abolition
Dim@@
verbrau@@
dre
check@@
ë@@
Spi@@
Hyper@@
stau@@
Hochschul@@
Inhaber
gefasst
differently
ttes
Autonom@@
multilater@@
Dynam@@
Oc@@
datum
zahlreicher
mitzu@@
infra@@
dangers
newspapers
5th
rows
ambience
Terra@@
irgendeiner
wäh@@
ermitteln
deny
enthusiasm
gru@@
line-@@
gäste
aket
schnitte
Slowenien
Fehlen
Organen
contributes
rations
etric
Advanced
l.
sst
Schre@@
gy
pione@@
Juan
B.@@
verbot
Standpunkte
ffene
klassische
removing
Coast
xx
lager
aterie
schrau@@
Allow
1976
notion
Planet
¤
zerti@@
isiert
Vorbereitungen
Watch
rier
eu
Listen
Clu@@
Blin@@
gele@@
ßer
Freizei@@
projekten
regen
streit@@
materialien
Aktien
Besonderheiten
freiem
Menschenhandel
manifest@@
resorts
p.@@
exploring
füllt
flotte
Geschäftsbedingungen
grüne
Beendigung
2000-@@
clarification
Universal
lon
distribut@@
Kun@@
Algarve
ure@@
onie
üben
kommens
wofür
belgischen
demanded
lean
Müller
teria
messe
Bali
Medika@@
peak
invested
rence
asks
verdi@@
Division
alize
00-@@
pfe
schneiden
Ausnahmere@@
Netzes
ürz@@
stätte
Zahlreiche
schaftlichen
Hop@@
wan
stakeholders
Buddh@@
Meanwhile
airo
IE
geho@@
begrenzten
begeistert
ruhen
Charak@@
Flughaf@@
formul@@
participated
template
Herrschaft
gesunde
örung
Präsidium
adequately
murder
shire
extern@@
prim@@
Philipp@@
ht@@
generi@@
Ereignissen
Möchten
laboratory
backing
inher@@
glu@@
Kup@@
villas
orten
verschoben
tisches
announ@@
Nature
Lit@@
atorium
Erleb@@
Kongress
anspruchs@@
Tom
group@@
announcement
Mun@@
Plu@@
Pak@@
EGF
iets
bezahl@@
vielfalt
Perspektiven
zerstör@@
ss-@@
cker@@
steckt
Chr.
salt
landscapes
klausel
RAM
äufe
E-Mail-@@
steigenden
Jahresbericht
Finanzmärkte
ultra@@
mounted
Ric@@
gross@@
hosting
Baroness
Heritage
Infe@@
fang@@
Therap@@
Soft
Siena
Zut@@
Indem
besetzt
friedlichen
use@@
wake
SIS
linguistic
harm@@
refined
CP
islam@@
ha-@@
potenzi@@
Wetter@@
enswerte
Deine
Abfälle
schiff
vielfältige
glück@@
aktivitäten
Beachten
Gesetzes
errichten
unanimous
insp@@
consisting
as-@@
Lodge
Medizin@@
tü@@
gebrochen
distribute
implies
lay@@
Tot@@
haven
ues
propri@@
Caribbean
kill
spell
amen@@
zumal
nähe
Rats@@
schrieben
Tatsachen
nehmern
summary
enemy
open@@
dogs
Que@@
Hill
wiederhol@@
Empfän@@
spiritual
independently
Lebanon
credi@@
erle@@
Internetseite
Arbeiter
igkeiten
tzei@@
Ursprung
aufeinander
Stattdessen
bereitzustellen
tab
sons
Bosni@@
short@@
Fitness
überwiegend
sinn
Freih@@
schuldig
Abgesehen
knowing
minds
jud@@
ety
tening
nic@@
expor@@
prominent
advent@@
Stein
weekly
MD@@
Stro@@
währ@@
wohn@@
Ankündigung
Unterhaltungs@@
Befehl
idealer
gehörigkeit
Trag@@
Ausstellungen
parlamentarische
schwerer
Einheiten
emissionen
grew
intergovernmental
Medical
Outlook
Bonus
schlechter
verbindlich
Informationsgesellschaft
verleiht
Zwecken
erlau@@
analysiert
europä@@
landwirtschaftliche
accused
restoration
ateg@@
influenced
stro
Armen
Prü@@
deutscher
Betrugs@@
motivated
suddenly
vention@@
Hz
Avenue
klares
Limited
196@@
profiles
Plugin
Kopie
Zubehör
beitreten
Binnenmarkts
resumed
vili@@
gebühr
stabilität
nachvoll@@
harte
Sep@@
hide
unlikely
ALE
circuit
bö@@
Uhr@@
Aufträge
finanzieller
Mid@@
delayed
sim@@
Gil@@
bands
Converter
Aufruf
Konflikts
verschieben
strafrech@@
korrekte
Zugangs
Grundfreiheiten
Albanien
furthermore
practic@@
Ear@@
Treiber
Vorsitzende
Manchmal
Gleichbehandlung
lower@@
Jackson
gear
discovery
SV@@
endo
Leh@@
Moskau
Gitar@@
schluss
agieren
dedic@@
vens
Hilfen
Moldova
Tunisia
Semin@@
vermu@@
Tipps
Vermeidung
bereitstellen
accountability
dom
touched
hazardous
competitors
sher
lief
ul
verbesser@@
prüfung
bedingt
Effektivität
verankert
angehören
ältesten
explains
anded
Dau@@
verständ@@
trock@@
reiten
verhandlungen
stärkt
Kathedrale
struck
ouring
repa@@
Bad@@
4th
enzi@@
Schwan@@
Zulassung
benachtei@@
vre
vul@@
inal
evil
show@@
musik
Autor@@
explanations
safely
securities
translate
Bron@@
Johannesburg
ATION
Portu@@
zon
hairdryer
vorne
ï@@
Cav@@
Supp@@
Def@@
ktur@@
Hierzu
Gegenstände
detailli@@
vorangegangenen
consul@@
isolation
Excel
ssel@@
vorbe@@
Elementen
Bildschir@@
afterwards
dentally
mathemati@@
Clo@@
clin@@
comforts
Maison
verfüg@@
stattung
häusern
Variante
indire@@
Key
Water@@
bathing
ceram@@
Ruh@@
Store
Vorwand
Flug
niedriger
Ganzes
Ausgleich
blocked
aden@@
inser@@
nau@@
commonly
Gate
Grande
Provin@@
Frontex
belegt
verliert
stabile
zerstören
weitergegeben
Entstehung
Russlands
Rahmens
justification
exo@@
profound
orian
aga
vine
utility
Blick@@
Beweise
Passagi@@
zuverlässig
Voraus
Integrität
Parlamenten
interfaces
gases
trademark
sens@@
carrier
graphical
FS
besticht
dazu@@
breites
dauerhafte
genauen
hinzuweisen
lot@@
harv@@
gered
HS
racht
cam
vente
php
kirche
halts@@
verwand@@
nördlichen
wenigsten
in-depth
anen
1968
VIP
ese@@
lische
DVD-@@
rachte
korrigieren
dbar
capacities
ilt
yellow
lap@@
promotes
deriv@@
mins
strit@@
ströme
prev@@
economics
is-@@
dging
Junior
waves
gter
explicit
Premier
Pierre
nov@@
OL
athle@@
Flotte
untereinander
Wachstums
Kommissionsvorschlag
CEO
rus
SP
Papier@@
künstler@@
auseinander
bemerken
selbe
luxuriöse
prompt
weapon
Libya
impres@@
ocean
washing
Continu@@
Cold
Ris@@
Christen
ignorieren
Eigentums@@
ric
cting
Naz@@
tiny
män@@
niedrig
Fortschrit@@
mittlung
Dringlichkeit
leitet
Halbinsel
wichti@@
constraints
clou@@
authentic@@
Ero@@
Regimes
Maus@@
skep@@
Telekommunikations@@
firmen
beglei@@
Berater
Protokol@@
wendungen
wozu
zutiefst
unprecedented
rescue
mos
alive
Rele@@
extends
oot
W.
Spei@@
USB-@@
startet
Acht
entstan@@
zulässig
stom@@
Exc@@
anxi@@
Kaz@@
atories
elson
Fab@@
Bür@@
Esp@@
modest
decentrali@@
eligible
Ré@@
encounter
Camp
PN@@
Diagno@@
begreifen
TNG
assungs@@
intensiven
Sekre@@
Zielsetzung
scep@@
ians
nobyl
ft-@@
ICH@@
iken
zeitlich
ausgewogene
zugän@@
erober@@
Inneres
recover
host@@
ation-@@
strö@@
turen
Marketing@@
tausende
Trennung
satzes
Vorredner
officers
consci@@
Cour@@
tener
stimulate
Alpha
Neph@@
sexuelle
menü
geltend
backed
commission
disman@@
170
hectares
roles
ug@@
excess
Econom@@
aves
Ira@@
nen@@
FOR@@
geräum@@
Fuss
übersetzt
entfer@@
gültigen
durchgesetzt
circu@@
quer
bir@@
ellen@@
Camping
Reak@@
einzigartig
unverbin@@
embar@@
Journ@@
Provider
Mili@@
warmen
geschwindigkeit
infrastructures
profitable
cat
scienti@@
ense
tradi@@
Written
ess-@@
-Spe@@
straßen
Mitwirkung
verknüpft
Energieversorgung
interessen
Armuts@@
alling
scra@@
investing
Oslo
lows
DEN
Kühlschrank
zukunfts@@
Vorbe@@
fristig
gebenen
glücklich
Ratspräsidenten
earned
suspension
inge
thal@@
orn
ost@@
3-star
e.V.
u.@@
bew@@
Freien
besseres
wurfs
stunden
mehrerer
genügt
jährliche
deta@@
tight
duction
rum@@
rot
fai@@
oes
Spam@@
Frieden@@
proje@@
Kreis
Zugleich
rivers
Estonia
alties
you@@
Gebrau@@
Schmu@@
vorhandene
reconciliation
bears
acking
220
flan@@
Gl@@
Erreichen
Dich
Ausgang
fruits
risen
destabili@@
Head
Newspapers
Klar@@
PC-@@
Luxus@@
diesmal
Spielraum
wechselt
Unserer
employee
Singapore
confron@@
arriving
Bill
17.@@
filters
allo@@
Eisen@@
bungs@@
veranstaltungen
Mitentscheidungs@@
Petitions@@
reviewed
Domini@@
eption
seminar
Sales
Play
schungen
Substanzen
hopefully
sympath@@
audit
gathered
Ern@@
Jak@@
wire
PRO
Loc@@
weren
Golfplatz
giert
jähriger
Tagungs@@
vorrangig
Scheitern
Ursprungs@@
perc@@
veter@@
mou@@
transformed
Statistik

Ton
neueste
Dolmet@@
damaging
simplified
await
anc@@
0.00
einzustellen
chemischen
mehrmals
getestet
Simbabwe
Sämtliche
Tendenz
realised
speaks
panels
reaches
Palazzo
Neuigkeiten
ausgearbeitet
grave
feelings
capability
celebrated
Gelände
lägen
friedliche
vorschlägt
striking
analo@@
check-in
Zur@@
freundlicher
sele@@
tätigkeit
müsse
impetus
proble@@
iere
Wechsel
Kluft
Palästina
isc@@
indigenous
four-@@
brut@@
Engine
Meer@@
einla@@
Genf
jahres@@
Fristen
verbieten
elabor@@
negle@@
fits
Christ
ATA
Kaiser
éri@@
tur
Kanal
chnungen
Beobachter
ausgebaut
systematisch
bedeutend
render
libraries
trig@@
expan@@
Deli@@
Veget@@
ellem
gebenden
gipfel
Leidenschaft
optimalen
Schwimm@@
junger
gebrau@@
anstelle
schlimmer
Ausfahrt
gesun@@
divide
boundaries
Hur@@
conditional
co-operation
Relations
berg@@
maß
fluss
einmalige
veaus
tunnel
ECHO
consist
erc@@
ographic
Republi@@
wski
Roll@@
ermaßen
ausgestatteten
Amtszeit
diox@@
currencies
luck
perman@@
enjoyable
rent@@
menus
ppen@@
Freie
lands@@
erhol@@
anmelden
essions
Rather
conviction
formula
Sant@@
Eurex
Gew@@
dä@@
Auseinandersetzung
Spuren
align@@
abstained
incident
Watson
iss@@
dam
cap
shoes
ion@@
Technologi@@
Funktions@@
ausbildung
schwedische
Leid
umgekehrt
outlined
avoiding
culinary
Thai
Garda
Segel@@
ION
bereitschaft
Weihnachts@@
zauber@@
Produk@@
übrig
Gerne
Ersatz
dus
ambitions
inia
D.@@
gänger
umfassendes
Zugangs@@
rägern
fahrzeugen
vessel
beat
cultiv@@
enting
Dy@@
processor
Ras@@
Pfei@@
Benutzern
Mühe
ernden
retirement
fossi@@
solu@@
reproduction
isn
blau@@
Festi@@
Erleben
fehlende
Stabilitäts-
harmonised
aken
eness
twelve
ühle
resistant
bark@@
Reb@@
5.000
Einwände
lässi@@
Einfluß
emandem
incorrect
plying
arians
Disabled
kos
za@@
Himm@@
Video-@@
begeist@@
beträ@@
Anhänger
südlich
leidung
Berechnung
gewiss
districts
Barnier
part@@
brutal
on-line
OG@@
türkische
zustand
Än@@
weisungen
berühm@@
indispensable
complement
Event@@
ecke
bat
remo@@
Feri@@
gaming
Frank
Cubase
flüge
Verbindungs@@
Wachstumsp@@
alising
vicinity
lish
hist@@
tained
Chicago
luxuri@@
Metho@@
befu@@
Speicher
stunde
Heiligen
Gemeinsam
beantragt
Infrastrukturen
talent
excee@@
HR
142
usses
Disk
gerichteten
verband
gelang
Mehrere
mündliche
arity
distinguished
activ@@
detection
fic
18-@@
atte
Sarkozy
Feuer
anstreben
witness
Bremen
somewhere
titles
thos
Simply
ferenzen
awar@@
aca
gnis@@
Christians
studios
Linux-@@
schaf@@
Zäh@@
Partei@@
Komponente
wahrnehmen
enfor@@
Shar@@
reasonably
besides
Lev@@
mond
cooling
chal@@
zö@@
trü@@
untergraben
Swoboda
systematically
cements
Monitoring
Kron@@
Ring
wissenschaften
aspe@@
dauerhaft
wandern
geschätzt
finishing
Spen@@
ologically
entities
Fat@@
Wör@@
gehend
Versuch@@
anbietet
Annual
TA@@
conscious
recy@@
cep@@
lag@@
Famili@@
ular@@
atur
Thermal@@
Verkehrsmittel
Stütz@@
Ernennung
Besteller
unvergesslichen
Behinderungen
advocate
Mount
Canaria
themati@@
Euror@@
Solange
unmittelbaren
Versand
anter
ordnen
gründlich
beantragen
appreciation
disagree
plas@@
Moderne
o.@@
KOM
Stellenwert
Informations-
lion
abu@@
calculation
Boh@@
acher
robots
lektu@@
Eintritt
Vermarktung
quiries
ne-@@
alliance
ku
starker
Univer@@
Produktion@@
prochen
knapp@@
strategien
einbringen
Zuerst
einsei@@
rul@@
quantitative
Leonardo
electronics
winners
gericht
Age
Bell@@
wedding
org
Blut
Verein
erw@@
wesens
Gemüse
Erika
limitations
interpreted
complic@@
bey
Mugabe
therap@@
Grupp@@
Geschlechter
Bestand@@
Doppelbett
ktives
spezif@@
verwirklicht
thor@@
complaint
tness
reinforced
Schiffs@@
Ultra@@
TU@@
herunter
tatsächliche
thin@@
fed
reader
Isol@@
Demon@@
Flas@@
blü@@
begab
maker
EX
ror@@
Reno@@
Schiffen
sozusagen
Vorbild
eingeben
Kunststoff@@
koordinieren
malerischen
essive
Jam@@
ink@@
heb@@
netze
Foren
Verantwortungs@@
Schluß
dänischen
lli@@
existed
Supervisory
Nachteil
Abwicklung
Transa@@
verstärkten
benötigten
PPE-DE-Fraktion
Minderheiten@@
pipeline
separation
master@@
outer
dele@@
bia
essed
ot-@@
Infos
Män@@
Anmerkung
Leistungsfähigkeit
schmerz@@
NG@@
wishing
sweet
featured
printer
Tyrol
elegance
Yu@@
Workshops
SSL
Geschle@@
pläne
ausführliche
gefolgt
rs
lays
nowadays
emotional
counting
Head@@
Child
Za@@
Monta@@
Visual
Gastfreundschaft
vernünftigen
leichten
attempted
mad
allies
Cross
Sternen@@
vermehr@@
Sicherheits-
admission
Slo@@
cycling
kapital
dierte
Welthandelsorganisation
Konflikten
entworfen
scenario
abuses
prevents
orious
jec@@
Marine
Eurostat
PER@@
bestä@@
bürger@@
gesorgt
unterstreicht
faktor
Kommand@@
Spanisch
griechische
indirekt
Weltbank
Tunesien
corri@@
tary
vement
Buil@@
ielle
schön@@
Deut@@
Umsatz
Hintergrund@@
Automobilindustrie
inevitable
Frank@@
genetically
lum@@
lingu@@
Army
ölle
endan@@
integr@@
ji@@
Sci@@
TC
Deluxe
bestellt
Sowjetunion
orient@@
urban@@
oth@@
laying
beha@@
Chechnya
1973
21.@@
kommission
gemü@@
Begriffe
sendung
Unlike
Prestige
exquisite
SD
subscription
té@@
Ord@@
Dire@@
sames
Statut
zent
stün@@
Nutzungs@@
maßgeb@@
Defizite
größtenteils
Dafürhalten
shaushalt
acro@@
sharp
distributors
woods
ä
mend
bas
Terrace
Magic
esischen
zwangsläufig
Nichtregierungsorganisationen
urity
Between
Gibraltar
queries
Tap@@
16th
Fut@@
Vogel@@
Abweich@@
belegen
kompetenz
vereinfacht
Sensibili@@
tensions
joy
Gun@@
decoration
vertei@@
fischen
Entfer@@
cargo
loud
subjected
stream@@
bloo@@
rice
Photo
verteilen
ständiges
Rezep@@
Indikatoren
advances
Franz
ames
Smith
ppy
Rechtssicherheit
keln
Focus
G20
atz@@
gesetzliche
Souven@@
unterhalb
zeitraum
US-Dollar
Suchen
lichung
Menü@@
Being
ements
adjustments
colonial
Privi@@
Kamp@@
globalization
más
besagt
wunderbare
wickelt
Schwier@@
Mittel-
benachrichtigt
inter-@@
inspiration
anno@@
blen@@
arran@@
lifestyle
enco@@
MAN@@
Rechtsan@@
passenden
deutlicher
Fertigung
abgehalten
institutionen
shareholders
sensitivity
retri@@
fair@@
Basic
tram
Nahrungsmittel
IGC
inevitably
up-@@
extrac@@
22@@
acken
fabri@@
angel@@
Jose@@
algorith@@
furnishings
Zent@@
bevor@@
Industriel@@
endete
entschei@@
PSE-Fraktion
Nothing
horizont@@
jum@@
Lad@@
ber-@@
schrieb
Devisen@@
notic@@
ruled
supran@@
door@@
asy
uten
räder
ssige
befür@@
Touristen@@
bewirkt
nennt
anzugehen
fundamentally
restrictive
selecting
dictatorship
autonom@@
killing
aders
lip
pig@@
neys
prints
accommodations
Fischer@@
saal
angeneh@@
onischen
japanischen
häufiger
fasst
Treibhausgas@@
eable
Adriatic
cus@@
brother
125
arises
Milit@@
yn
authenti@@
Pilot@@
tauschen
exceptionally
admi@@
Duis@@
endless
visas
maintains
distan@@
emb@@
Klaus
arab@@
Entschädigung
frisch@@
stufen
bekanntesten
Annäherung
colon@@
saison
industrielle
socially
ruption
Ny@@
Nie@@
electro@@
Shopping
kilometers
saubere
zier@@
verm@@
Ebenfalls
drehen
fache
bewe@@
stehe
ausgeübt
vorhaben
.....
Dé@@
jan
designated
HR@@
Mozilla
erschein@@
Fün@@
schwerwie@@
taire
inequality
exten@@
resolving
countless
hunger
mid
Reich@@
verbin@@
stahl
Territorium
Internetseiten
hinzuzufügen
Stellungnahmen
openly
tremendous
ignor@@
Yor@@
sac@@
konz@@
Ress@@
packen
gezielt
kurz@@
erweiterte
Minder@@
Arbeitskräfte
Finanziellen
A5-00@@
lawyers
jung@@
breeding
lav@@
dust
path@@
1974
cha
Sky
on-site
Anders
liv@@
IND
levard
brin@@
Schaf@@
kauf@@
ktieren
Alkohol
Argentinien
ints
younger
Stabili@@
Spit@@
lern@@
Veranstaltungs@@
ßte
schulen
Gesetzen
4-Sterne-Hotel
personenbezo@@
Legitimität
Entschließungsanträge
Nachbarschaftspolitik
ie-@@
Om@@
16.@@
authori@@
kunst
Beobach@@
Durchschnitt
runden
gesetzlich
benutzer@@
Stränden
aktiver
fähiger
stoppen
floo@@
qualities
invoice
Juli@@
ow
raff@@
Isch@@
grundlage
schieben
nachzudenken
adverse
stating
Hitler
ende@@
vineyards
Summer
Kommentar
allmählich
schaftliche
bereichs
Applikationen
führender
linking
gradual
vigil@@
envisaged
recover@@
climbing
Allgemeine
ule
test@@
ware-@@
höhe
Forst@@
wus@@
verschwinden
Umstrukturierung
procedural
legisl@@
Forest
out-@@
Athens
Petitions
chil@@
aluminium
Arm@@
rang
Jahrzehnte
artig
Übertrag@@
Säule
Insofern
tment
conce@@
roughly
mono@@
assign@@
aboli@@
pride
unanimity
tracking
Recy@@
Euros
ventions@@
Reichtum
Sozialpolitik
Aufrechterhaltung
class@@
criminals
Out
liquid
palace
boarding
aya
reicher
Jazz
otel
Hub@@
unzureich@@
Zins@@
fließen
attach
oxi@@
urs@@
Lum@@
Prix
rift
Job
dauerhaften
begrenz@@
beeinträchtigen
pointing
rites
shr@@
scenes
Abu
seaside
krie@@
Cardassi@@
förmi@@
Offizi@@
sieb@@
stechnologie
beding@@
criterion
first-@@
albeit
avy
Later
ranges
ada@@
quet
Ernst
Relax
erinnen
Vorbehalte
Auswahl@@
Haushaltsjahr
invites
igrant
wich
fertili@@
1983
Carlos
Materials
Phil@@
Castell@@
Sli@@
DM@@
zufriedenstell@@
Fertig@@
großartige
single-@@
Much
lying
revol@@
Cultural
ois
free-@@
ritt
audiovisu@@
TEC@@
dryer
decor
amtierende
zungen
außergewöhnliche
ersuchen
gemeinschaftliche
scrutiny
refugee
Pie@@
designers
Große
Digit@@
Ansätze
Gefangenen
beglückwünsche
Wahrscheinlichkeit
imperative
provi@@
mountain@@
supplement
fundament@@
Verona
Queen
Spr@@
tlichkeit
Stadtteil
abends
beliebten
layers
globally
inhab@@
attempting
moon
ageing
couples
la-@@
Reh@@
az
mache
Wohlbefinden
Signale
Anreiz
servative
voices
tagon@@
advised
exclude
crystal
ually
32@@
Aller@@
schwarzen
koordiniert
vorbereiten
abzielt
Kernenergie
defici@@
entrepreneurs
expi@@
fulness
emble
inne
terraces
cca
stroll
drücke
vorausgesetzt
Libanon
nutzung
beliebt
cros@@
cris@@
symbols
delivering
perfec@@
dot@@
nick@@
Commander
REACH
Bere@@
Aktiv@@
effizi@@
reib@@
Ärzte
Zustellbetten
interference
enrich@@
high-speed
quer@@
Bluetooth
Spra@@
verbreiten
Architekten
weitem
donors
NOT
teach
cigare@@
beautifully
1500
Vot@@
hn
dringen
wende
integrating
carries
Criminal
cycles
etta
refriger@@
bag@@
Fall@@
Wiki@@
esen@@
Termine
rigorous
sincere
puri@@
aters
container
12-@@
Neu
Busse
geschätz@@
erwar@@
fortzusetzen
verglichen
Gesamtheit
rahmens
Redezeit
Kompromisse
compens@@
Mou@@
-in-@@
kin
bikes
Repar@@
tolle
fikationen
betrug
Dienstes
treibt
gründet
examining
technically
hung@@
1981
horses
dener
Mountain@@
Oracle
auftritt
Fertigungs@@
Augenmerk
Unless
Large
obo@@
Fili@@
Soli@@
booth
Them@@
ogra@@
tico
akten
Norwegen
Kommunikation@@
1977
licensed
FF@@
Top-@@
NOR@@
qm
ruppen
Basis@@
gischen
bekräftigen
fif@@
excuse
cils
symbolic
classi@@
execute
Days
Nationalpark
kenntnisse
büros
Dörfer
verbindliche
anfangen
Any@@
Intel@@
Custom@@
que@@
enthal@@
träglich
Gefän@@
Sofern
Finanz-
präz@@
langjährige
Konkurren@@
festhalten
fabric
Commun@@
Controller
Prac@@
reciproc@@
skill
Hunger
gi
entwickel@@
genheit
leute
zweimal
Zentren
Völkern
Kredite
bedürfen
Redebei@@
abzulehnen
overnight
carriers
scop@@
Publik@@
erzi@@
schreck@@
Inanspruchnahme
kamera
determining
euro@@
Tren@@
lans
Enter
ön
Schlu@@
ppt
Flach@@
Treib@@
Flüchtlings@@
Landwirten
ebo@@
cross@@
sont
Zeile
ventionen
Anzeichen
cost-@@
loy@@
mixture
15.@@
stit@@
accessed
packed
pur
BAS@@
15th
enten@@
Entertainment
Griff
lichten
Aufsicht
legislativen
dimin@@
Gross@@
variables
Channel
robu@@
Application
FS@@
Ramblas
Train@@
Starfleet
Reden
religiöse
Entschei@@
Partnerschafts@@
engagieren
vorzuschlagen
character@@
Whilst
tie
votre
ärm@@
Rimini
olen
stärke
luft@@
bemerkt
dahingehend
Anpassungen
five-@@
decrease
statute
enburg
Jur@@
HI@@
Clear@@
racing
Lobby@@
Sym@@
charman@@
Durchführungs@@
Kosme@@
Gegenwärtig
bezogenen
Schlußfolgerungen
fat
abili@@
mount
Electri@@
chester
arien
funktionier@@
Richtigkeit
gesendet
billigen
pflan@@
ausgedrückt
fes@@
vacuum
rain@@
Upon
clinical
Especially
Statute
stitution
Det@@
leg
arische
aal
Copy@@
yp
ausgezeichn@@
bün@@
wuchs
hinterlassen
Gesetzgebungs@@
Lanka
impro@@
pin@@
brie@@
strand
fici@@
knowled@@
ots
Refle@@
strom
Type
mn@@
Print
verträge
fünfzehn
Aufgaben@@
Indonesien
erreichten
resol@@
entity
Round
NT
Block
theast
formu@@
sser
downloads
customized
geschmackvoll
Gef@@
vorzubereiten
Verpackung
regelmäßige
Libyen
Anwendungsbereich
rungen
generating
mineral
City@@
betreibt
Kühl@@
kämpft
gerer
Wäscheservice
non-governmental
consultations
marriage
shooting
christ@@
preises
Obst
beweist
Naturkatastrophen
Operationen
indirectly
exploited
household
silent
dress
128
sung
xis@@
upload
Vec@@
Seh@@
Impulse
müh@@
Verz@@
etzt
Landschaften
Aussichten
gehörte
raums
distant
terror
endeavour
jer@@
Let@@
Oxford
Hist@@
Frattini
renovierte
stischer
persönlicher
Mailand
Ansprechpartner
tragenen
shell
deplo@@
Dör@@
placement
dreams
samples
sachen
patch
buff@@
ASA
Persön@@
Grafik@@
abgeschafft
compromises
disastrous
rarely
shine
Airways
Ostsee
DS9
rechnung
erfor@@
abzuschließen
utter
smu@@
passi@@
cost@@
dacht
fehler
ansä@@
stungen
gleichzei@@
amtierenden
ktiert
islamischen
le-Distribution
restra@@
instability
ateau
Zeitungen
unum@@
behindert
wiederhole
transatlantischen
wished
quick@@
discretion
opponents
1990s
Tokyo
ckers
Veter@@
bugs
Beton@@
Klick
bereitgestellten
Räumen
verschlüssel@@
bekämpft
kenntnis
Direk@@
validity
judges
disciplinary
worker
totalit@@
Save
grid
CC@@
Railway
panorama
partement
Psych@@
2014
Stil@@
schle@@
Redu@@
fungs@@
gefühl
schulden
automatischen
-European
nette
coach
buttons
hausen
Facebook
medizin@@
beruf@@
Vielmehr
keits@@
exam@@
Guar@@
ity-@@
verify
Bed@@
spr@@
Users
beam@@
ummer
eingang
geholt
spür@@
Eleganz
Geträn@@
gewann
veröffentlichten
delivers
sympathy
GS@@
dago@@
text@@
Arri@@
unkt
Milch
Einblick
durchschnittlich
abgestimm@@
leiste
Einladung
Passagiere
Orientierung
Sitzungsperiode
heres
safeguarding
coins
ò
Teu@@
zügi@@
Juden
Kalender
Kompromiss@@
ziehung
deadlines
17th
dow
herein
Som@@
tchen
RT@@
Theater@@
besetz@@
Projektes
Sicherheitsrat
Verbrauch
Wurzeln
bels
Ps
chances
refra@@
hybri@@
rd
Schal@@
stanz
erleb@@
Vergü@@
Sicht@@
Einbindung
befreien
Kreatur
workplace
sex@@
comfortably
it-@@
defense
Erfin@@
Gültigkeit
Erstellen
mittel-
Visum@@
struction
trans-European
Vig@@
massi@@
onte
Sett@@
tron@@
000@@
aku@@
vie
Rep@@
Geo@@
german
frische
Heim@@
schaff@@
Sortiment
zugreifen
Gleichheit
deeper
sail@@
delegations
cinema
Panel
Somm@@
Simul@@
bedient
In-@@
Progno@@
neh@@
HOTEL
trieb
energie
proliferation
stir@@
SU@@
og
wissenschaft@@
heil@@
Auftraggeber
holung
mangelnde
Zellen
assessed
reactions
undes@@
Azur
tournament
Krieg@@
wachen
Säu@@
Pharma@@
geseh@@
Gefähr@@
unent@@
coalition
eling
Gesetz@@
ßes
Sehen
aufre@@
Flüchtlingen
zuverlässige
matches
locally
herself
minibar
Chef
Solarium
keiten
gelag@@
Arbeitslosen@@
Beförderung
moralische
missible
accommod@@
preference
concludes
circum@@
yl
expl@@
Religi@@
contest
Maj@@
territori@@
R.
scripts
behold
festivals
b-@@
Direkt
Preis-Leistungs@@
traditionell
Wahrnehmung
bevölkerung
Schottland
zusammenzu@@
inwieweit
utions
repression
volu@@
sav@@
static
Ferienhaus
starb
immerhin
Herstellern
geordneten
schaftlich
Immunität
Looking
Cannes
Partners
walt
EK@@
Cot@@
tana
Festung
erkenn@@
schätzung
twenty-@@
margin
threatening
proportionate
universe
ellers
ger-@@
ño
english
letztes
Kondi@@
Teilnehmern
appearing
Transpar@@
definitions
admitted
mic
protective
insert
engagement
....@@
iker
Dry
hochwer@@
thaf@@
etten@@
kopieren
beachtet
Selb@@
einsetzt
paragraphs
esp@@
passive
surgery
Lob@@
estro
lok@@
verlängert
energie@@
author@@
Romanian
foster
oration
Crus@@
Dubai
izes
beschä@@
Neither
encomp@@
Holy
nutri@@
oom
2,5
listet
Fäl@@
erfassen
abschließen
1.2
Koso@@
correspon@@
Again
aan
I.@@
stairs
erei@@
Straß@@
vermieten
Gegebenheiten
länen
Beitrittsverhandlungen
transported
reser@@
organs
Direct
ox@@
Kil@@
Domain
Friedrich@@
gen-@@
Downloads
Krimin@@
Vertrieb@@
diesbezüglichen
Mauer
Kameras
Gefan@@
XX@@
Future
ty-@@
collections
configured
29@@
porte
modular
Updat@@
höchst@@
adet
Künstlern
ertem
shock
argued
workforce
cular
solidar@@
ferry
parall@@
geschlossene
Zinsen
Artikels
anyway
op-@@
Lav@@
esco
Shop@@
geräumigen
Wikitravel-Benutzer
Möbel
deckung
Vorstand
webe
unterstrichen
Cohesion
congratulating
astic
FO@@
das@@
Umgeb@@
zügen
bedauer@@
Gleichwohl
Gewährung
Hoheits@@
asts
Jews
formali@@
Sax@@
Review
strecke
modelle
Fahrzeugen
Bier
atemberau@@
Christdemokraten
retro@@
itz
Anyone
intel@@
Muni@@
tera
standard@@
Millenni@@
zeile
stieg@@
Pfer@@
schlä@@
serklärung
einzuleiten
certificates
tonight
dity
deciding
intim@@
Medina
therapeu@@
Bern
partner@@
hir
ING@@
chtige
Schalt@@
geschütz@@
wettbewer@@
genutz@@
erkennbar
Generalsekretär
year-old
energies
credits
securing
Mechan@@
ños
norm@@
ehl
WiFi
echt
gemütlich
Geschen@@
Früchte
tiefen
vereinbaren
gratuliere
noti@@
asting
Henry
dra
compan@@
guest@@
lichere
besitz@@
educ@@
wanting
trail
lend
nearest
E.
Mary
eign@@
Rock@@
SilverFast
Folge@@
angemessener
fangs@@
Beträge
Maßstab
harten
stöß@@
istan
Hav@@
isse@@
Tourist
emphasize
Chat
länge
downlo@@
verordnung
alternativen
ernannt
grundlegend
Außengrenzen
modernisation
gather
insight
age@@
Deutsch@@
Florida
Co.
en-suite
identifizieren
optionen
Autonomie
unvermei@@
tible
evalu@@
simil@@
modus
audiovisual
.-
tox@@
Korean
Guinea
ometer
Breite
Besichti@@
drit@@
stie@@
Störungen
gemachten
mend@@
modification
cotton
beside
gun@@
scape
Muslims
Auth@@
Punta
MT@@
Epo@@
Quer@@
Messenger
fehl
Europäisches
Spann@@
vorberei@@
Kleidung
beratung
Präsidentschafts@@
bestraft
Ziels
aggre@@
Respon@@
yal
vou@@
awards
figu@@
lifts
PA@@
friend@@
was@@
antiken
Statt
erschienen
Alkohol@@
Entwicklungspolitik
far-reaching
endeav@@
proves
gau@@
toll
Wolfgang
ismo
musicians
Sequ@@
Wunder
Ticket@@
Etagen
schaftlicher
Unternehmer@@
gründe
windigkeits@@
terly
Karls@@
dis
unilateral
cattle
Andr@@
att
Depending
keyboard
kus
gebucht
Später
Literatur
anderswo
Environmental
chamber
ICE
poss@@
hof@@
höh@@
igte
kore@@
Demokratisierung
maßgeschnei@@
pillars
civilians
autonomous
gical
aro
Banglades@@
IFA
eite
Baj@@
herausge@@
Spielern
setzten
wertvollen
zurückkommen
optimieren
routine
bili@@
offset
environ@@
1969
Cru@@
aman@@
ila
healing
Lizenzen
Ganze
laufende
nern
stabilen
zunehmen@@
dle
thereof
Heb@@
Annex
off-@@
listing
reveal
painted
athon
Collection
Gift
Interview
Geburt
Lissabon-@@
mild
Hilton
BSE-@@
Chaos
Bundesrepublik
teres
Stimmung
Begegn@@
Mitarbeiter@@
Netzwerke
führend
Hoffnungen
incomes
ades
Posselt
newest
rative
ckte
doppel@@
Etik@@
gefügt
confidentiality
Want
eman@@
terrain
trages
chip
ingo
kanz@@
Gletsch@@
spieler
Gemeinschaftsrecht
konkre@@
regelungen
honest@@
tique
Freedom
preservation
Potential
cup
DJ
Angeboten
gig
Anzeigen
Gesundheitswesen
bildungen
asiatischen
Kohäsion
Feder@@
Local
WHO
Label
Navigation
metro@@
gelände
Erneuerung
städtischen
Dienststellen
Impf@@
formally
guilty
convincing
DO
eme@@
gli
terrasse
abgel@@
Artikeln
geschützten
innocent
exper@@
Latvia
Mountains
bedeutendsten
Meinungs@@
Darauf
voranzutreiben
Katastrophen@@
Kandi@@
dable
hearts
globe
surplus
episode
categ@@
uner
serial
kle
ento
latt
Gä@@
SQL-@@
Gepäck
englische
worauf
Diktatur
Nuklear@@
remedy
implic@@
buyer
WW@@
cover@@
lah
founder
nal
F.
Balkan@@
ALL
blockiert
Übermittlung
Wert@@
angeführt
grenzt
strebt
berau@@
übertrag@@
gehand@@
wirksam@@
worried
studying
promp@@
immunity
ult
inviting
boys
commands
bicycle
Nob@@
TION
schwäch@@
monopoly
Objective
tling
Zealand
Friedrich
od
positives
turm
Windows-@@
Ungleichheiten
Schienen@@
Soci@@
tariff
law@@
Viol@@
Adam
Statisti@@
genz
Affili@@
bearbeitung
wache
diversen
Sozialisten
Häufi@@
tseite
Mensch@@
dynamischen
aufhören
safer
gins
unified
affir@@
witn@@
ideological
revenues
abandon
elite
eux
transpar@@
Wu@@
Malaga
Jack@@
toren
wertes
gestrichen
schaft@@
Campingplatz
personality
thinks
distinct
standardis@@
evaluated
ò@@
Mercosur
cling
geräumige
acht@@
aufweist
eventuelle
Meinungsäußerung
Eff@@
dered
Proc@@
segments
deter
diesel
Moh@@
John@@
Flüssi@@
Beschaff@@
Seattle
classification
transfer@@
usa
pine
abteilung
Nachteile
forderungen
bigen
versetzen
opou@@
etings
Help
fant@@
Long
Stim@@
europa@@
Shuttle
gebo@@
volumen
erschien
frühere
lierungen
niedrige
Schwerpunkte
gebnisse
bekanntlich
indications
configu@@
alog
Heu@@
strahlung
stechnologien
bücher
wertet
freiwillig
lassen@@
wirksamer
zivilen
menting
deployment
Turk@@
chart
assemb@@
medicinal
vide@@
NE
sequence
Loch
Tai@@
G.
18.@@
nische
Caf@@
bahnhof
lieferung
beobachtet
Zivilisation
ausmachen
endorsed
pending
investig@@
micro-@@
Works
profession
surfaces
venues
Gab@@
Mira@@
direkter
vielfach
ausgenommen
ausgewählte
Ganzen
einbeziehen
Schließung
Beobachtungs@@
enhancing
modifications
Berlusconi
hoff@@
Rücken
Währungen
Komplexität
Konfigurations@@
künften
accompanying
clauses
Lama
limitation
5000
exclu@@
FP@@
Democracy
classified
GM
highway
jen@@
TW@@
ont@@
Sofia
Nicol@@
ungsh@@
gebor@@
erzeugung
Tagungen
ausgewogen
Jahrhunderte
Exeku@@
strikes
disch@@
endo@@
attraction
Albu@@
Jacuzzi
verlust
ermittelt
sämtlicher
erfahrenen
Konsumenten
obstacle
prerequisite
reti@@
alia
correction
Acti@@
aboard
andau@@
Erfassung
brachten
Etage
touristischen
packt
ausgeliefert
relie@@
Merkel
RS
Kari@@
Cleaning
probe
echter
dringlich
sonni@@
Bewegungs@@
dürften
dichte
nahen
Gedanke
Kompromiß
fizierten
außer@@
Konferenz-
Daraus
Verhinderung
Befu@@
calcul@@
wash@@
Against
19.@@
fier
Everest
terra@@
Rosen@@
Innsbruck
Porsche
Voraus@@
sache
UNO-@@
Änderungs@@
atta@@
punishment
assador
aiming
Minist@@
Sty@@
Schuh@@
kunfts@@
Vorsicht
Bürgerrechte
Publikationen
äußer@@
reimbur@@
limiting
nings
detention
1.1
Liter@@
Rica
intuitive
Fassa@@
Hunderte
Schnit@@
Geschichten
reservieren
situationen
Schwach@@
ruf@@
Zutaten
Beispielsweise
Clinton
complementary
Rum@@
Imple@@
24-hour
baro@@
tick
Wag@@
Laundry
kör@@
gesu@@
Hotelzimmer
dynamische
mobilen
bekam
riert
iell
Fischereiabkommen
interventions
vy
hunting
Guatemala
tually
Alban@@
priced
rounded
Zah@@
Learn
Gur@@
Eck@@
TER
Doku@@
jenige
geschenkt
Nichts
fulfil@@
vertical
authorit@@
14.@@
escal@@
pris@@
tles
3.5
dioxide
Biom@@
Kling@@
Cancún
bestätigung
aktiv@@
Zigare@@
erwarte
basierend
Konzerte
männ@@
Erkrankungen
irgendeine
defizit
dramati@@
sends
LI@@
rear
Tie@@
Phan@@
Buchstaben
dorthin
Auflagen
Königreichs
begrenzen
quoten
Ec@@
rts
responding
tras
pedestrian
perfe@@
auto
Laman@@
Erwerb
behei@@
Aufklärung
baute
seitdem
Konvents
annually
Little
identifying
Peking
duplic@@
och@@
Ash@@
Petersburg
Exhibition
ausgebil@@
paint
sorts
improves
definitive
Consul@@
ave
arme
Abend@@
versprochen
Kindes
Akzeptanz
rieben
sozial
klarstellen
disabilities
divisions
advisory
Smart
instant
Directors
asi
compos@@
spru@@
Kanäle
dicht
ietet
Davon
awa@@
arena
pricing
Bulgarian
Wh@@
py@@
ments@@
Love
ammern
beliebtesten
vereinbarung
inierten
Erschein@@
Ausschüssen
Tschetschenien
anwendungen
oods
morali@@
emis@@
cco
Jack
Awards
HA@@
Bün@@
Word@@
frau
Clients
kunft@@
Angebot@@
verhandelt
Nutzern
Erweiterungen
Industriepolitik
ausreichen
schätzt
drew
Canary
Trav@@
bör@@
problemen
abschluss
Aufpreis
Moldau
aufrufen
Flächen
effizienter@@
begünsti@@
abzugeben
Rechtsrahmen
dairy
Dom
Theatre
bor
Kei@@
reiches
späten
bestände
artigen
Toleranz
pflegen
embry@@
gle
broadcasting
Agen@@
sprin@@
Elite
Modell@@
preisen
Demokratien
Fax-
bedaure
Diejenigen
penet@@
safeguards
Journal
acu@@
RA
pré@@
zin
Ferr@@
Anth@@
mord@@
Rechen@@
Verpackungs@@
feier@@
festgehalten
Tastat@@
multilateralen
owing
undi
perform@@
Saudi
origins
thwest
Benjamin
alpha@@
BSD
Verwen@@
Zyper@@
Texas
seas
council
IF
6-0@@
Rohr@@
gessen
römischen
gebrachten
abhängen
grafischen
gezahlt
CO2-Emissionen
yield
smoke
sleeping
Forscher
anlässlich
Kriterium
boom
confidential
sag@@
ordering
snacks
Brand
berge
Grü@@
Formel
Glücks@@
Zusammenfassung
verschärft
turn@@
help@@
Bangkok
developer
Heiz@@
laufend
zir@@
Zucker
damaligen
zuführen
fän@@
Genauigkeit
sparteien
Vorgang
Sozialpartner
comprehensible
contam@@
portion
night@@
navi@@
giant
brand@@
Scrip@@
morgens
Layout
Fokus
Elektriz@@
Veranstaltungsräume
Borg
Zukunfts@@
Unterricht
europas
Resultat
Standorten
meint
bürgerschaft
bewahr@@
genetisch
ergy
double-@@
diam@@
ition
aving
note@@
Congo
Galax@@
zio
stel@@
Kro@@
MM@@
Aparthotel
schicht
Quadrat@@
Weiter
ehren
Erhebung
abschließ@@
amerikanischer
Though
Canadian
stants
Nag@@
sensi@@
bund@@
aki
pe-@@
tner
Nachbarschaft
Kampf@@
besichtigen
Strecken
ausgerüstet
ever-@@
anch@@
crats
there@@
consolidated
Internation@@
tank
train@@
Canal
rer
amendo
herausra@@
unternehmer@@
vorgesehene
pull
inspections
region@@
condem@@
rors
plu@@
liqui@@
figh@@
detect
pop
dev
Script
Assozi@@
außergewöhnlichen
Wollen
anne@@
consolidate
praise
recognises
Albert
lifting
H.
erec@@
fridge
defin@@
bets
Vegas
.NET
verschi@@
winkel
geschnitten
verweist
oberfläche
Funktionsweise
möglicher
Gemeinschaft@@
Tabellen
ratify
inland
Sloven@@
surro@@
É@@
Fusion
oph@@
unmittelbare
Schlo@@
Shutt@@
stuhl
Bruder
blicke
würdige
setzungs@@
berühmt
compiled
overwhelming
hosti@@
card@@
Nit@@
SPA
medic@@
ctu@@
essor
erho@@
gescho@@
funktions@@
grafische
hygiene
wheels
uts
metals
bottle
documented
Cruz
urop@@
Zie@@
einrichtung
guitar
krank@@
Nordirland
Schritten
roten
modernsten
Vollständigkeit
schriftlichen
bewäl@@
spreading
prescri@@
dramatically
loads
baggage
SIM@@
betreut
familie
biologische
genommenen
ländischen
Klaren
costly
fairer
theoretical
distinguish
visibility
frames
legendary
gee
versi@@
sth@@
Spirit
Benz@@
Megapi@@
lichte
mein@@
Anschließend
merken
Inzwischen
themen
Ergän@@
pflanzen
transp@@
apped
Algeria
democracies
geographi@@
landing
supporters
screen@@
Down@@
Walter
CD-ROM
World@@
38@@
Nul@@
Schri@@
ignano
Werde
gster
gefahren
schien
Subsidiaritätsprinzip
Bolkestein
passport
Imm@@
ergi@@
Ds
linder
Begeisterung
Rollen
menden
Linken
ired
witnessed
multinational
nisch
demonstrations
settle
Balance
dek@@
cathedral
enta
Files
schau
salle
Spock
sweise
Anleitung
wenngleich
Vertrau@@
aufgeführten
Allein
quo
Europe@@
Vall@@
foodstuffs
blocking
galleries
productions
SK@@
Stab@@
Datent@@
investitionen
kapazität
Rohstoff@@
spartnern
auseln
zonen
gesenkt
mitglied
enforce
tiers
diet
én@@
burning
~
partnern
Umstellung
markiert
optimiert
söhnung
Schriftliche
corporations
ancies
clas@@
compla@@
arest
irrespective
Sahara
Fis@@
Cards
exi@@
sident
vign@@
attraktive
unweit
Israels
Zwischenzeit
trinken
formerly
our-@@
Ben
RF@@
Reserv@@
Songs
dimension@@
ORE
artier
erbar
Besetzung
ausgeben
gulierung
Hindernis
geschäf@@
defiz@@
definite
confirms
disappear
pushed
humane
horn
mac@@
hip
veau
Norm
Lust
Gutes
bestanden
Folgendes
feasible
controll@@
reaffir@@
CV@@
Check-In
Dutz@@
thilfe
zuständige
korrigiert
Endes
retained
tori@@
postp@@
protects
even@@
cue
ISA
uniqu@@
Andro@@
Sites
Production
brun@@
partment
aktionen
wunderbaren
Birma
Eingabe
faktoren
Viertens
forestry
wasn
completing
Kä@@
-System
erbringen
ausgestellt
Lauf
einrichten
incidents
Meas@@
kop
siden@@
750
Coo@@
gebir@@
Fest
findung
Schad@@
heruntergeladen
zenten
taten
veröffentlichte
adjacent
assessing
chips
Political
SOL@@
fragile
1980s
agra@@
aran
Commerce
altitude
Evalu@@
orange
ALDE
Tier
Beibehaltung
gau
geschicht@@
ktem
elung
beleb@@
beauftragte
Gegenden
attentive
dossier
dead@@
peror
Ji@@
Wissens
Sammel@@
Behandlungen
enberg
veri@@
economical
foo@@
wholes@@
wet@@
ceremony
vities
autor@@
Amat@@
courtyard
Stefan
Fan
Comfort
FTP
Keram@@
Zentrums
Formate
anzusehen
Hongkong
vertrag@@
verkauf@@
Recently
colo@@
detected
escap@@
Gom@@
encountered
24.@@
produc@@
bedded
Photoshop
Höhen@@
kommunizieren
halben
westen
ueber
ergänz@@
opt
problematic
arly
Son
ffe@@
Harry
Kyoto-@@
Fülle
zulegen
bewundern
Biokraft@@
tent
echo
intent
conten@@
hec@@
conducting
trials
photograph@@
lush
jn
Klo@@
ML
-Hotel
Viel
statt@@
steine
Masse
Bedürf@@
Prüfungen
textiles
Lange
Euro-Mediterranean
introduces
event@@
Somalia
inson
manually
mware
tschechischen
personen
kü@@
gangen
Gewer@@
short-@@
construct
6th
intimate
otive
administrator
letter@@
intelligente
siedlung
schwach
-Sterne-@@
Wanderungen
Maus
gängen
nachfolgenden
stufe
verlu@@
counted
spac@@
helicop@@
Jes@@
tery
ktor@@
druckt
Fremden@@
sfer
haupt@@
etwa@@
Verzeichn@@
Sicherstellung
tanks
persu@@
posing
organising
imagin@@
precautionary
GMOs
accessibility
perception
road@@
2.2
berry
Interpretation
Barro@@
selts@@
Sisko
gelan@@
Kolle@@
wurf
gefangen
Delegationen
ro-@@
vian
actu@@
stad@@
Inte@@
o.
kommunik@@
Therapie
aufhalten
schwe@@
bewegungen
zusammengestellt
Ökonom@@
Asyl
beherbergt
Arbeitszeit
rumän@@
ensu@@
headed
end-@@
Colombia
seller
baths
Autovermietung
Folter
machung
latein@@
Präsent@@
beunruhi@@
vereinbar
Infrastruktur@@
dali@@
Herzegovina
defeat
temporarily
Rate
Crist@@
09.@@
Zusammenbruch
Motto
Egal
suchten
architekt@@
lasten
Experten@@
berechti@@
steu@@
henden
Einkommens@@
kommunistischen
Bestände
beihilfen
Agri@@
viruses
measurements
Kurs@@
Olympischen
ausgehend
drän@@
wirtschaf@@
Aufnahme@@
Persönlichkeiten
geeinigt
Still
withdrawn
renewal
painful
Major
ar-@@
Additional
cream
Scandin@@
1972
spam
24-@@
fres@@
stü@@
gewöhnliche
fassten
gewaltige
Konvergenz
eive
shorter
recru@@
encourages
donor
bunal
here@@
omas
Auskunft
problematisch
vorzugehen
Begrenzung
anspruchsvolle
erzeugnisse
Inflations@@
topical
meaningful
recti@@
milli@@
neutrali@@
CIA
ves@@
amin
beh@@
Apo@@
Paradies
ansprüche
übertragung
ktivitäten
durchschnittliche
trächti@@
zugang
Darlehen
initiate
Frau@@
ernity
stle
emit@@
loan
zel
Speed
Zap@@
CPU
büh@@
NH
Div@@
Blizzard
IRC
verdanken
wandeln
griffs@@
Erdbeben
Gewähr
österreichische
Quite
stically
fig@@
coura@@
1950
protot@@
gie
Parking
vergleichbar
Behandlungs@@
appelliere
ttaus@@
portable
50-@@
warrant
Jobs
inch
Solidarity
Imperi@@
iga
P.
Beleu@@
einhalb
ologen
Schätzungen
Schlacht@@
Hochschulen
haltenden
verbundene
fizierte
compet@@
observ@@
mile@@
Nap@@
aka
simulation
dio
äler
transparente
Unregelmäßigkeiten
diplomatischen
debatte
Streitkräfte
Hague
ulated
continuity
attacked
Manchester
DC@@
Sydney
ateway
Kamer@@
Freizeit
Räumlichkeiten
unkten
schrei@@
Unterstütz@@
versorgen
kostenfreien
coastline
tta
repar@@
Host@@
anton
hs
Drucker
übergreifende
Verschlechterung
kritisieren
quoted
in-house
wisdom
smallest
lv@@
teri@@
Dür@@
ehr
installer
Smart@@
EW
LabVIEW
stück@@
gasse
unglaub@@
Konzert
Durchschnit@@
steigende
Ungleichheit
resultier@@
fulfilling
tendency
princip@@
Hear@@
broadcast
uty
Angola
haz@@
tice
tei
assen@@
php@@
Wandern
Beschäf@@
Zertifizierung
kontra@@
behindern
floods
lack@@
Fortunately
suppor@@
arre@@
consi@@
Beauty
SEO
Blä@@
ausgeprä@@
demselben
juristischen
beheben
Mitgliedsländer
laimed
OSCE
desi@@
sche@@
Volkswagen
Below
Split
sé@@
gerte
erzählt
erstre@@
traf
Stoffen
osteuropäischen
ggf.
Hauptziel
Temperatur@@
inappropriate
Piet@@
writers
home@@
TEN
backup
fabulous
uno
holt
Haut@@
Protot@@
Motoren
Ansprüchen
tagung
lieferungen
Estland
Datens@@
Stabilisierung
formity
crimin@@
spiri@@
Germans
1960
pository
Virtual
Hygi@@
Twitter
er-
disku@@
Bibliotheken
ungsphase
Gremien
beunruhigt
six@@
lifelong
Red@@
Heidelberg
très
nightlife
ext
FREE
Reisenden
Nachrichten@@
untersagt
Ermitt@@
Along
Dr
Tony
damm
Screen@@
schmer@@
riffe
zügig
Reparatur
entnehmen
Gemeinschaftsebene
Effec@@
bition
adv@@
shes
bub@@
toxic
brea@@
Hydro@@
ACE
tranquil
Vieh@@
irregularities
PVC
traditionally
draws
Harmon@@
suits
cabin
ain@@
BE
Organ
Kloster
Rie@@
Photocopying
Promenade
einigt
gefertigt
Einsparungen
Schlacht
schlimmsten
Zusagen
Übereinkunft
organisms
2.1
dell
TRA@@
S-B@@
kriti@@
soren
erholen
virtuellen
mietung
verknü@@
Defizit
anzuerkennen
privileges
brilliant
hair@@
endums
Verhaltenskodex
optimized
demnächst
Kongo
leuten
gerlich
Monats
jemanden
höherer
Pfeiler
Six@@
noble
cooperative
Multi-@@
psychological
aver@@
illness
Conci@@
photo@@
surf
iser
Delta
boutique
zuvor@@
Pazi@@
Wiederein@@
verantwortung
komplizierten
drängt
Frankreichs
Konsolidierung
Fotokopiereinrichtungen
priori@@
Questions
Ala@@
yle
singer
Images
Bit
dion
beginn
Phasen
Zweifel@@
belastet
Fundament
erhebt
distor@@
coordinating
wid@@
Tuscany
Fiel@@
bik
Machen
berat@@
theken
Begleitung
chno@@
bury
races
hony
buffer
7th
Blau@@
Schauspiel@@
läufigen
gliches
entsprechender
weiterentwickelt
beugen
reluc@@
contro@@
thick
lling
Mercure
klick
Charakter@@
unglaublich
Blei@@
verzeichnis
gangene
Chemikalien
chtest
responded
exacerb@@
refusal
Applic@@
stent
surance
stra
utz
Legi@@
anzen
Schließ@@
wünsch@@
Broschür@@
bilaterale
Informationsschalter
Chancellor
timing
warran@@
proch@@
miner@@
Johannes
aba
Willi@@
tasty
affen
Musiker
irgendwann
zwecken
Rohstoffe
Mitglie@@
mutz@@
Hinzu
Überwindung
hebung
Pots@@
plot
cons
Lady
Creative
Engine@@
pedia
Verw@@
Garanti@@
Mannschaft
Bestrebungen
überdenken
Migranten
Cadiz
south-@@
protests
ILO
cel
righ@@
dimensional
Equipment
dei@@
existi@@
privater
komponenten
vernünf@@
Evaluierung
getroffenen
herrschenden
understandable
concessions
perceived
admire
linear
volumes
burn
fitting
counter-@@
communist
depic@@
spark@@
reserv@@
dant
farm@@
readers
Meister
glas
gl
Conil
Frühstücks@@
komplizierte
herbei@@
zurufen
polizei@@
Gehir@@
stenten
geschnit@@
zuhalten
gigan@@
Liikanen
ude
ART
round@@
gambling
mär@@
scan
Küh@@
Designs
Kamin
läßlich
verschul@@
itals
memories
GAT@@
Chris
Import
bookings
skri@@
geber@@
Wartungs@@
Öff@@
erung@@
massiven
besorgniserre@@
nahe@@
denburg
infrin@@
socio-economic
Catholic
tied
dish
torial
Côte
lun@@
glau@@
versorgt
stellbar
Verwenden
disadvantaged
N-@@
definitiv
esenen
streiten
Trock@@
definierten
gedenkt
Gewässern
unternimmt
employ
23.@@
varying
flora
casting
statutory
Diversi@@
pension@@
ás
Pay@@
Info
Appell
tigste
kreative
Tragen
Viren
berechtigte
evenings
Thessaloniki
hops
eggs
stitu@@
Temp@@
DE@@
Points
Minim@@
kultureller
Gesprä@@
zug@@
Kompetenz@@
Entdeckung
verteidigt
flexiblen
ierter
Korrektur
aufkommen
Bedrohungen
abgedeckt
dropped
recur@@
barrier
big@@
ünsti@@
mende
untergebracht
ereien
erweise
tled
speculation
automobile
Cardiff
abetes
Ih@@
Häusern
Aufteilung
verläuft
arbeitenden
verlängern
überwachung
befreit
crus@@
convey
MIN@@
ith
anto
Night
proofed
Romul@@
serie
Wand
gelegentlich
belastung
market@@
advan@@
diagnosis
voltage
animation
Memory
Wri@@
Vulkan@@
Auslands@@
mitzuteilen
Bestimm@@
Unser@@
prüft
Pfad
Plattformen
Modellen
Mitbürger
ehrgeizige
harder
Back
Some@@
ruins
CR
linen
den-@@
marble
Stars
gemeldet
aufgegriffen
exzellente
geneti@@
Spiels
veranlassen
Mittagessen
earthquake
Secretary-General
pretext
EEC
desc@@
estic
Ecu@@
Priv@@
Versicherung
Neut@@
Piz@@
tritts
widerspiegeln
exemption
assu@@
dying
ront
trace
Doctor
ckness
Symb@@
exakt
hôtel
Ausstellungs@@
katastrop@@
soll@@
¶
Zuliefer@@
Angehörigen
bestehend
Ents@@
verursachten
folgendes
outermost
ounced
Incre@@
stresses
defines
E.@@
ried
lou
quiry
Holding
viewer
Beschränkung
Base
Vern@@
Kanz@@
gelassen@@
hervorzuheben
gehalt
perfekten
GVO
Gesichtspunkt
preserving
toys
pots
muster
broadband
Fam@@
EZ@@
Guantánamo
wälte
attraktiven
Tauchen
aufgeben
Terrorismus@@
wahrgenommen
gewahrt
Verfas@@
konfigu@@
Articles
qualification
locked
ultra-@@
pushing
Appar@@
nett
Misch@@
Sän@@
betreffende
entziehen
lässigkeit
grundsätz@@
technologien
schreiten
aston@@
Castro
instances
dark@@
ply
preparatory
conscience
trun@@
press@@
20.@@
Sn@@
Erziehung
Klang@@
ausgegangen
Aufstellung
haltende
obliegt
abzustimmen
AKP-Staaten
disadvantage
shame
literally
hardt
Jen@@
Budd@@
Stay
DB@@
mediterran@@
profitiert
Szene
Badewanne
Texten
hinreich@@
tackled
Alicante
collecting
ons@@
Song
ard-@@
Hob@@
Herzlich
medien
Jahreszeit
förderungs@@
durchschnit@@
prozessen
einschlägigen
uneingeschränkte
Erzeugnissen
unge
erup@@
Price
Clean
ftwa@@
laundry
wehr
mord
zucht
Geschlech@@
Erwachsenen
versichert
territorialen
anti
random
mean@@
opera
worlds
som
philosoph@@
mare
Has@@
Monitor
italien@@
getre@@
sichten
pflicht
wünschte
hoping
ras@@
capitalism
Active
DNA
coating
UT
FT
Monu@@
v.@@
Turni@@
assungen
Rechtsprechung
teilnehmenden
broadly
pir@@
andin@@
Montreal
borro@@
Raf@@
ggen@@
boot@@
irgendwie
Tepp@@
sensib@@
Italiens
reihe
Handhabung
Freilassung
Poettering
attitudes
bend
inet
experiments
upgraded
missi@@
CMS
Upgrade
bemü@@
Einleitung
formulieren
Klassen
geschä@@
Unfall
behindertenfreundliche
extremis@@
Modi@@
uten@@
sh-@@
Secure
Machine
Verkehrsmitteln
Trä@@
Lamp@@
GEN
wohnt
erstklassige
steil@@
plung
anschauen
Warnung
anerkannten
Mitgliedsstaaten
Überleben
Algerien
commend
inequalities
protectionism
transnational
eliminated
aults
stock@@
trendy
exotic
Cafés
KO@@
thotel
catalog
Allgemein@@
Geschäftsreisende
Einerseits
eigent@@
fürchte
peripheral
slide
sau
cho
Kim
Cash
e.
Gestalt
schiff@@
auswahl
Verhältnis@@
entfernten
erzielte
erhöhte
äle
Energiet@@
empfehle
ahme
Partic@@
disappeared
objections
outline
impressed
Hollywood
seed
Nepal
agua
Model
Offic@@
Chianti
diente
Oster@@
Verbin@@
Preises
ichtungs@@
Verstöße
adop@@
demon@@
Whatever
Obst@@
ardo
oasis
Jet
Garage
ysteme
verbrauch
hinnehmen
Erwachsen@@
Kommissars
persecution
chie@@
depen@@
rassi@@
verwandeln
stisch
gieb@@
anien
verarbeiten
Daneben
presiden@@
anticipated
eliminating
vising
wood@@
Reding
Produc@@
Lyon
conditioned
merchan@@
retention
Leb@@
tub
hine
Med@@
45@@
samt
beeindruck@@
Haltestelle
stationen
anmerken
Logistik
Parlamentar@@
mittelständi@@
beliebige
Etiket@@
tom
anism
archives
Nas@@
ane@@
German@@
Continental
batteries
fak@@
zern
Partition
andel
versprechen
konzer@@
behilflich
Mitentscheidung
sozio@@
democratically
livestock
vin
Hans@@
Graphi@@
Wohl
schweigen
maßgeblich
gewöhnlichen
Bemühen
poorer
respec@@
municipality
handi@@
revolutionary
anta
mma
astronom@@
Page
Bach@@
anci@@
Radisson
Mini
ALL@@
Seel@@
Mineral@@
archite@@
Wagen
nächstes
zte
beeindruckende
Autorität
Aufstockung
transi@@
shoulder
yiel@@
injury
Finn@@
mitt@@
sein@@
tops
IK
ritten
heimischen
serb@@
Gebäudes
willigen
einstellungen
fläch@@
aufrechtzuerhalten
obgleich
Konservativen
Lebensbedingungen
gathering
KL@@
pressures
sic
Nan@@
sensors
schlag@@
stetig
westliche
verwendete
haft@@
Genehm@@
Pestizi@@
transeuropäischen
facilitating
198@@
tat@@
stadium
Mario
rah@@
betragen
Trainings@@
stellern
veränderten
elektrischen
Ergeb@@
leisch@@
köst@@
repräsent@@
Gesetzgeber
gewähr@@
Freihandels@@
imple@@
updating
aker
vibrant
Trin@@
Rose
stö@@
YouTube
park@@
Akademie
Boutiqu@@
banken
gängig
Direktor
onisten
eingeschrän@@
unterrichtet
gesetzgebung
Instabilität
inspec@@
grass
eping
positively
attending
nai@@
energe@@
shut
Cash@@
Studies
dialo@@
Ple@@
iors
His@@
ovo
Solar
Kast@@
ausreich@@
Genfer
stür@@
überschritten
Einfl@@
Jahrzehnt
einräumen
beschleunigt
vri@@
semin@@
sical
grain
ASEAN
Ukrainian
voor
Donn@@
Kohäsionsfonds
beauftragt
haber
Slideshows
verlin@@
setzungen
sprüche
antwortet
fortsch@@
weaknesses
pursuit
third-country
persuade
terie
ð@@
Ausnahme@@
Zeitalter
Oberflächen@@
Werken
Höhepunkt
Variablen
Protektionismus
strukturellen
Weltkrieg@@
slight
gress
cane
ycle
llo
Alz@@
Explo@@
disc
10.00
Monaco
ICH
forder@@
mittelalterlichen
gewaltigen
Bandbreite
need@@
mood
thirty
tality
shortage
oll
Fau@@
opol@@
stainless
offer@@
BB@@
ört
Seminare
Dekor@@
verweigert
dierten
undering
Corbett
Dell
tissue
ae
etch
antique
Manuel
Sw@@
Málaga
platt@@
Fahrzeu@@
privilegi@@
wirst
Schwanger@@
Strafe
zusammenhän@@
Reichweite
folgte
widerspiegelt
gefährlicher
befürchten
konvention
weal@@
stly
contradiction
launching
screens
signatures
eventu@@
thur
zoom
GA@@
Hof@@
glicher
Zahl@@
einfaches
höher@@
oberste
screening
gency
infection
laim@@
Wärme
Tiefe
Vermögen
christlichen
Schulungen
pus@@
dirty
protein
inion
VA
Spiegel
weiß@@
adidas
komb@@
Gerü@@
Inhalts@@
birgt
einwand@@
schrän@@
geplante
Aussehen
Herzegowina
Gleiche
konkreter
gekürzt
bilität
Jordan
insur@@
incredibly
Natura
refreshing
Bologna
ICEcat
holz
Palast
begeben
Aufbau@@
Vergabe
Klausel
ordnungen
denkbar
nachkommen
gänzlich
Mitgliedstaates
represent@@
11.00
deliberately
Cypri@@
geable
efs
isons
inas
Baro@@
sprachige
unzählige
Regierung@@
Nachfolger
zwingend
aked
distinctive
cury
unic@@
Giovanni
Leiden
Pisa
Medium
schlicht
gesetze
Typen
Ehe@@
Beantwortung
notify
neo-@@
List@@
Generi@@
Ball
Festivals
mah@@
kommend
geschlossen@@
hrt
geheim@@
lemma
osity
wis
boy@@
void
Sustain@@
folk
sheep
resear@@
vic
Prince
tot
enses
Vö@@
PayPal
Ethernet
Sandstrand
Vide@@
10.000
komfort@@
decke
überwälti@@
Schauen
Diskussions@@
chnung
Vorsorge@@
Zinssätze
passion@@
gated
crop
acres
damp@@
attack@@
Argent@@
Vali@@
Koch@@
solarium
ITE
Wellnessbereich
kenne
sprechende
lagen@@
Fische
Wiederaufnahme
-Fraktion
Eurojust
relevance
dog@@
desert
andal
Turm
bräu@@
Ausserdem
offizi@@
tigsten
überarbeitet
hinausgehen
häufigsten
satis@@
Jav@@
Certainly
ethn@@
enda
Marra@@
vegetation
ao@@
bean@@
model@@
günstiger
erzählen
endung
nahmen@@
herauszufinden
Pakt
redund@@
lending
dn@@
iten@@
Band@@
agenturen
stärker@@
Haushaltskontrolle
täu@@
elimination
tration
ance-@@
ius
partments
Male
analog
Lab
riften
LK@@
¿
Musli@@
wöch@@
zwecke
Spannung
besuchte
Afrikas
congress
density
affair
edo
DF
ventions
Unit
thou
adi
unde@@
Princ@@
merkt
Aluminium
USE
Angestellten
Schnee
verbesserten
blich
Münzen
Standor@@
chair@@
varies
negligence
Century
complied
dose
cultivation
Turin
experiment
establishments
Americ@@
Bavaria
ret
DEN@@
erhielten
Bestandteile
Unfälle
unterschiedlichsten
bestrebt
Entsor@@
EWG
Messen
müßten
vorgaben
valued
fasc@@
eiro
2050
én
Us
Mic@@
Officer
Beau@@
mau@@
cion@@
Ostse@@
scheinbar
Anbau
sensiblen
exportieren
potenziellen
Folgenab@@
part-@@
Kart@@
propaganda
husband
cians
Mix
1.0
Cotonou
Boli@@
rays
vene@@
cz
Championship
Note@@
Meerblick
einzeln
Tempel
ultur
ämp@@
Dolomiten
deckten
nachtei@@
belebung
repercussions
reminded
licences
possession
Traff@@
Boutique
dachten
speisen
angekommen
ihrerseits
ssig
Genau@@
Reisende
Technologie@@
lässig
geschah
embargo
pity
staff@@
port-@@
contamination
Swe@@
Legisl@@
Alex@@
Vet@@
Patch
aufnahmen
Schwi@@
Herstell@@
Belastungen
vorherseh@@
Familienzimmer
aufw@@
ehrgeizigen
Stabilitätspakt
specul@@
accompany
stretch
eder
lib@@
fried
Inc.
Mön@@
zuverlässi@@
Button
stabil
ückt
gemeint
enttäu@@
hielten
anbieter
schär@@
Gewerk@@
richtlinien
bürgerliche
posting
sme@@
basin
particip@@
Scottish
ego
sib@@
NT@@
rump@@
malen
Ansonsten
belast@@
Eigentums
begriffen
Zusammenhalts
Beitrittskandidaten
dlern
Has
tiveness
roph@@
G8
hosted
Universi@@
intu@@
Oliver
Quartal
Meilen
verlaufen
folgedessen
Kürzungen
modernis@@
manoeu@@
circul@@
replacing
descriptions
zion@@
ranking
vegetable
Kit
informations
nein
griffs
blauen
Applikation
tigkeits@@
organisator@@
tigungen
Ausgewogenheit
Finanzielle
absta@@
rewar@@
thrown
Kurdish
displaced
County
positioned
see@@
Slovak
Magazine
kat
esthouse
Bike
asten
ühlen
Wohlergehen
Betrü@@
operieren
herrschaft
gaps
pit
closest
popularity
stati@@
eb
Banquet
Filter@@
großzügig
erender
ausschließ@@
Ausdehnung
distances
correspond
mitting
diplomacy
hood
Fit@@
Sey@@
Qui@@
igungs@@
Atlantik
umfangreiches
liebt
rechn@@
einheimischen
Zentralbanken
vorüber@@
ateur
sprung
refund
prostitution
spati@@
invasion
eph@@
Catalunya
1971
Clau@@
splan@@
unen
erbe
Zertifik@@
Periode
handelte
öser
visten
shipment
live@@
Gü@@
Rotterdam
lia@@
successes
Far
promptly
racy
prison@@
Near
yacht
Archer
Eich@@
Course
Zol@@
laptop
Chro@@
Palm
Teilnehmer@@
dliches
zusätzlicher
voranzubringen
imbalances
wearing
real-time
dealer
Blü@@
ffer@@
energi@@
Autob@@
Befürchtungen
Komplex
spreis
entscheidungen
verläss@@
Betrieben
Botschaften
vorwiegend
drag
MEP
fin
115
Police
wins
satelli@@
tzen
ThyssenKrupp
Airconditioning
rasse
freiwillige
Spekul@@
unverändert
Themas
Erwägungen
gher
fisher@@
Ign@@
Psy@@
Stern
Tunes
exe
Attra@@
asien
Erlaubnis
haltungs@@
Katalo@@
Lettland
schrecklichen
wissenschaftlicher
Kolumbien
Steel
discipl@@
servatives
wild@@
Almost
concep@@
captured
A1
ù
WE
Edit
Dolomites
kost@@
Wunder@@
möge
ehrte
Rettungs@@
orientieren
Berat@@
aufgeteilt
Schwächen
Klassen@@
künstlerischen
wiederherzustellen
potenzial
vulnerability
mort@@
fully-@@
Globalisation
tiles
IS-@@
Bele@@
YOU
schal@@
Patente
Gegen
Jahre@@
anscheinend
tragene
Symbole
105
regulating
activists
firma
tim
birthday
10th
PE@@
ameri@@
gra
veranstaltet
loh@@
artikel
offensich@@
Lieblings@@
pakete
Ära
vollsten
positiver
beloh@@
Krank@@
Director@@
sored
sanit@@
Arafat
treating
family-run
Nobel
macroeconomic
senses
bring@@
esth@@
Baden
telefon@@
Öffnen
ographie
Villen
komplizi@@
zufriedenheit
Inneren
vertrieben
Wortlaut
accountable
grey
incurred
diameter
eron
wap
kking
CSS
Ameri@@
geru@@
Malware
begrüß@@
Instanz
Gestern
Lärm
Eintritts@@
erledigt
Klärung
-Seiten
spir@@
midst
austerity
steep
Leon@@
interoper@@
nav@@
Labor
Feedback
zeh@@
bettzimmer
Südtirol
Aben@@
Lande
versicherungs@@
Harmonie
fängt
konver@@
zweit@@
dität
sofor@@
daraufhin
Ursprün@@
decides
overseas
encing
passage
hosp@@
experimental
call@@
donation
bauer
22.@@
Ferrari
ängen
ernde
Erdgeschoss
zögern
wissens@@
griffe
wählt
Erleichterung
compensate
deployed
fossil
Scientific
nutrition
bold
settlements
Davi@@
Property
varieties
Motion
magazines
ICA
Profile
Acrobat
Dokument@@
Einfach
sebene
restlichen
Netto@@
fehlenden
unterzeichnen
ermutigt
hospitals
ested
stricter
Cany@@
biotechnology
tired
Christi@@
Translation
Portfolio
Welle
Salon
Ai@@
Para@@
Komit@@
befindlichen
jeglichen
mächtigen
Beschäftigungspolitik
Haushaltsausschusses
allevi@@
minded
voic@@
IMO
parent
Maybe
horiz@@
ave@@
built-in
Anmel@@
Lagerung
Fahrrad
gerin
Rücksicht
Kontinents
häufi@@
afft
auszuführen
akadem@@
artiges
Anlaß
Schengener
Bewerber@@
entdeckte
ALDE-Fraktion
utor
envis@@
altogether
constituency
Wallström
light@@
sere
Currency
Brown
Flora
chise
stimulus
continu@@
Bah@@
Astri@@
Fres@@
ITY
Fed
Auschecken
Abonne@@
aussieht
idylli@@
vertrauens@@
Einwander@@
renovation
hne
genocide
Expan@@
lateral
auction
cocktail
mont
Kath@@
Workshop
ritte
gängigen
erledigen
Aktualität
europaweit
yards
mitig@@
conven@@
deterior@@
Iceland
corrected
Jarzembowski
kne@@
Liechtenstein
Geor@@
Flor@@
E-mail
git@@
omo
scann@@
St.@@
``@@
apaz@@
strei@@
virtuelle
zweites
herkömmlichen
Konzern
Plätzen
Varianten
Streben
entreprene@@
simpler
ova
olds
crash
ces@@
veni@@
liest
Oran@@
Telekommunikation
Berichterstattung
Lieferungen
ancen
angehört
wärtigen
angesprochenen
Parlamentarier
Bewirtschaftung
Renten
ounce
networking
onian
sortium
ser-@@
dum
rh@@
Map
tima
scanner
Innenhof
Blumen
steigerung
Multimedi@@
Nächte
Erkenntnis
flüsse
Konsequenz
wirtschaft@@
sowje@@
repräsentiert
schnellstmöglich
verification
Tunnel
exercises
thou@@
clarified
Vitorino
abolished
veness
Commons
accus@@
subsi@@
Alle@@
Stephen
scrat@@
nesses
Arctic
Jord@@
schot@@
Metrop@@
Flair
Venti@@
Zuwanderung
Glückwunsch
ganzes
nels
dear
weakness
tract
ularly
picked
banana
wit@@
competitions
Investi@@
São
AVI
chtig
Freund@@
Eis
Vertrauens@@
vermei@@
bege@@
lebens
Damals
Bedauern
vorsehen
generates
stituted
liberty
corresponds
wet
subjec@@
purchases
uta
Coff@@
personalized
KM@@
ahl@@
befin@@
Schulung
Nachtleben
läufig
Werkzeug@@
Serviceleistungen
Umwelt-
Stoff@@
spektrum
muslim@@
übernahm
Nachweis
Energiem@@
erneuerbarer
luß@@
Sozialdemokratischen
ernsten
abhängt
Decision
Liberals
guiding
enshrined
cure
Iz@@
Yesterday
debts
Uganda
ampli@@
dum@@
oping
Profil@@
Fuss@@
glän@@
Größen
legungs@@
Zeichen@@
Verknüpfung
Besatzung
Änderungsantrags
Verurteilung
rehabilitation
umbrel@@
momentum
thirds
gentle
aga@@
Spam
KE@@
Challen@@
Emo@@
organizing
gebot@@
längeren
beschäf@@
juristische
isieren
gnü@@
ordnungsgemäße
alisierungen
timately
applau@@
stedt
speeds
ecommerce
tastefully
Torre
travel@@
präsent
extremen
lindustrie
Akteuren
iden
Pent@@
moul@@
Wolf
ld@@
Fant@@
leck@@
install@@
umfangreich@@
Amerikan@@
legend@@
Straßenverkehr
Auswertung
initiativen
Filmen
bedeutender
seinerzeit
Haftbe@@
Chinesen
forever
computer@@
ideology
injured
designing
commodity
motivation
deliveries
itement
Carl@@
Aar@@
spiegel
48@@
teure
Toskana
Dün@@
Logos
.jpg
erstattet
rahmen@@
tilien
westlich
strengere
Nahrung
Gescheh@@
Bearbeitungs@@
aktuell@@
inierte
übereinstimmen
threaten
CNS
rigor@@
dening
bulk
Di
heimer
EI@@
Check@@
Streit
pfer@@
Weitergabe
sitzt
Teils
agnen
gesteuert
Löhne
variations
axis
imagination
Norwe@@
multitude
acid
forbidden
pedition
news@@
Temple
ção
Quick@@
deutsch
loten
Pakets
Meinungsfreiheit
Nordkorea
chains
symptoms
municipal
pse
ference
tariffs
tuna
aph@@
bron@@
Thom@@
injection
rocks
Iron@@
fireplace
intern
gelte
gepflegt
Gläu@@
widmet
Füßen
umfassender
ganzhei@@
verfasst
dehnen
Kraftstoff@@
Kohle
sooner
ceas@@
strip
manipulation
pesticides
uries
Mare
acou@@
BAE
Wid@@
TP
halbe
schwä@@
seitigkeit
Rüstungs@@
depl@@
grace
teeth
anymore
wholly
verified
Gat@@
PT@@
spri@@
Moo@@
Flughafen@@
punkt@@
gewalt@@
Bonus@@
griff@@
hochrangi@@
Fitnesscenter
persönliches
Auslieferung
Asylbewer@@
unilater@@
occasionally
intoler@@
indul@@
ranks
prises
confronted
Glan@@
copy@@
ers@@
eur@@
64-@@
Gardens
Arten@@
ermög@@
Dienstleister
Rindfleisch
älen
agten
versuchte
ethnische
beurteilt
beneficiaries
tee
expecting
additives
avian
Codes
restriction
legacy
Europar@@
intensity
UP
oi
Las@@
Distribut@@
Lufthansa
favor
Color
ablen
stehend
unglück@@
einflus@@
Erläu@@
Einträge
buchs
Mög@@
occurring
tune
journalist
punished
alarming
Happ@@
tings
recipient
Á@@
dak
café
hafen
Remo@@
agn@@
abel
BG
Hochschule
Speise@@
ordentlich
wendi@@
rechnet
Strafen
vertrags
herange@@
Speicherk@@
Drittländer
Felsen
containers
formulated
genic
energy-@@
VII
orph@@
ssi
Inspi@@
NA
ergie
angebot@@
etern
Paar
Züge
echtes
Einigkeit
vereinen
Haftungs@@
befaßt
entschie@@
instruction
rial
appropriately
NGL
ure-@@
avoid@@
mption
fastest
asymm@@
YO@@
Try
encryption
ause
Agent
risk@@
BA@@
delle
Art@@
tschaft
Elba
fortgeschrit@@
Snacks
protesti@@
Ansehen
strikt
Dauer@@
räte
Messung
Auseinandersetzungen
telefonisch
Reservierungen
millenn@@
stence
tilation
Lamy
ATE
eco-@@
Seville
LL@@
Afghan
macher
bow@@
land-@@
Dich@@
unüber@@
anschließ@@
Demokratischen
allgemeiner
kontinuierliche
Momente
ambiguous
educated
Five
enemies
Nic@@
ito
Date
verfassungs@@
Camping@@
grei@@
Gebäu@@
transparenter
ferenz
Kommissionsmitglied
small-@@
specification
issuing
exported
Dalai
feeding
Stress
seating
Hybri@@
Estate
Arbeiter@@
bester
rischen
Berechti@@
vernehmen
Straftaten
Bevölkerungsgruppen
Auswirkung
barely
ologies
transform
coa
flower
Peru@@
Cape
grades
uk
asa
grande
graf@@
tsprü@@
schätze
substitute
accomplished
ill-@@
ailed
Official
acity
Iber@@
matching
assor@@
Mec@@
eno
asso
geschäfte
Available
kern@@
Oper
othek
katho@@
Submitted
Terrain
ankommen
Programmier@@
Laufzeit
Wäldern
Konsultationen
COD
offensive
dul
baden
WordPress
Pressemit@@
Kapitalismus
üpp@@
Telefonnummer
Wirtschaft@@
Fotografie
Dienstleistungsrichtlinie
Ministerpräsidenten
offenkundig
Fahren
Qualifikationen
Ersten
Heraus@@
slowak@@
rüstung
billions
tenden@@
socialist
plo@@
eses
Rober@@
Electronic
tout
diagra@@
`s
fahrt@@
schwar@@
zeug@@
Jahrestag
zyklus
Zufall
kulation
attach@@
Warsaw
ket@@
Tok@@
modul@@
MAS@@
deinem
Enga@@
Verschlüssel@@
Finanzminister
Ratspräsidentin
clari@@
Resol@@
resist
103
11-@@
Virtu@@
nacht
cozy
Brief@@
Spiegel@@
zün@@
Käl@@
Schne@@
reinen
beziehe
überschreiten
ALE-Fraktion
financially
detriment
liance
mg
mounting
ags
NATO-@@
Crew
Verlag
Zeitschrift
verfü@@
siv
elektro@@
Richtungen
Ausbruch
entzieht
verhaftet
anführen
lander
geared
consultants
aber@@
age-@@
zar@@
neuro@@
pump
atar
Dialog@@
Länder@@
keit
Risi@@
schlu@@
angem@@
stellvertre@@
derartiger
weitergehen
Friedensprozess
bridges
invali@@
eler@@
dently
Croatian
stered
influences
NA@@
Architec@@
EOS
Abreise
Servern
nördlich
bevorzugen
beträchtlichen
Größen@@
shofes
kündigen
unterricht
israelische
Unrecht
wägen
101
Sad@@
incomplete
factories
13th
mobil@@
oro
Hack@@
roler
kateg@@
Eingan@@
herum@@
gela@@
traten
hoben
Streitigkeiten
kontinuier@@
Gesundheitsversorgung
sofortige
devote
Mut@@
burdens
strich
mysteri@@
tu
dh@@
Emission@@
binary
rede
offener
Grie@@
vertiefen
gewöh@@
Forschungs-
Unterschie@@
denom@@
prevail
duly
K.
Consu@@
room@@
Krebs
chio
stücken
rationen
finnischen
Stärken
Tschech@@
unterschied@@
utable
resident
self-employed
finger
Map@@
001
da-@@
Dame
Klu@@
Vormittag
gebot
verkörper@@
gleicht
erkt
mußte
historischer
Mehrheits@@
gerech@@
commission@@
alleg@@
alleged
pragmatic
jar@@
households
Terror
lings
air-conditioning
U.@@
Alli@@
Audio-@@
kitchenette
baum
03.@@
Hochzeits@@
ungen@@
freiwilligen
allgemein@@
Kodex
gewäs@@
EU-Bürger
Interventionen
Umweltpolitik
Privatisierung
luxuriösen
Secre@@
Sich@@
thful
etti
polite
bah@@
Kinderbetreuung
voraussichtlich
verständnis
dienstes
sahen
Fachleute
studierte
wörter
Aussprachen
worthwhile
Competition
criticised
wle@@
juice
ouldn
amos
³
Synchron@@
toff@@
Weihnachten
Trocken@@
ankommt
Aktionsp@@
Vertiefung
jur@@
postponed
enny
coin
biofuels
mmer
Dorf@@
brücke
privat
eingenommen
farbe
indischen
Überschwemmungen
zulässi@@
Gefühle
multinationalen
Haushaltsmittel
volution
Associ@@
springs
hormon@@
melo@@
zona
Sech@@
rechtlicher
zweier
kompati@@
auszubauen
Bestreben
ungarische
essively
forecasts
zens
radioactive
accurately
fem@@
zzle
SR@@
frozen
patio
Fris@@
klam@@
Lärm@@
schwachen
wettbewerbsfähig
strongest
misleading
mature
mothers
ex-@@
har
kW
cafes
Palais
reprodu@@
erholsamen
Jeden
Umstand
Logistik@@
galt
Beschluss@@
Bildes
ämmen
ject
atom
defended
cham@@
licensing
spective
reward
Commer@@
-and-@@
fixes
Fire
GL@@
Diesel@@
geld@@
Finden
Anstatt
Auftreten
vergabe
terten
beizubehalten
appellieren
Fourthly
extre@@
do-@@
delightful
Nau@@
Core
asy@@
Prot@@
Signal@@
ausch
Rhyth@@
Skrip@@
schwarze
zugewiesen
nder
risiko
geehrter
umgewandelt
codi@@
Ou@@
endt
eks
glas@@
Cus@@
Presiden@@
harmonise
Organis@@
predictable
intermedi@@
unab@@
etto
af
aton
licenses
Zar@@
fabrics
graben
verwandelt
Vorder@@
faden
Fehlern
eindeutigen
unterstützten
Enttäuschung
mitgliedern
aufrichtig
haltens
Daß
aufgezeigt
seasonal
submitting
erous
quanti@@
commissioned
discriminatory
accoun@@
halls
Strö@@
Softwa@@
aufgegeben
Wunsch@@
Adress@@
inter
horri@@
gian
DB
She@@
ethan@@
Defini@@
Pixel
hauses
Verstoß
gebern
riebenen
breiter
Vertreterin
verfolgung
cease
destroying
Lic@@
Reception
ole@@
handy
Bilder@@
kilom@@
demo
jazz
Befreiung
verschieden
gültige
ffekt
graus@@
güter
angestre@@
dened
normali@@
transl@@
promin@@
rises
directors
ograph@@
Economy
Progres@@
hill@@
Eden
onna
Hart@@
Museums
Hot
östlich
Deck@@
Gehäuse
Übernachtungen
Bezüglich
Anlage@@
recommends
aspirations
gates
Napole@@
informative
Esc@@
Orchestra
Bow@@
inkl
Öffent@@
entschuldigen
ausgedeh@@
geprä@@
Franzosen
Amsterdamer
liberale
ernähr@@
establishes
prehen@@
vot@@
stamp@@
earliest
trage
celebration
neutr@@
rag@@
Japan@@
II-@@
Lay@@
Oft
acion
Wertpapier@@
massiv
Verspä@@
augen@@
gekrön@@
Spaniens
criticisms
transposition
trage@@
sided
Ethiop@@
rand
Impro@@
ma-@@
Egyptian
arch
Istri@@
fert
halle
hilfsbereit
Funk@@
dringende
Brüder
Anfänger
koennen
Grundstück
bestimmtes
fikations@@
beeindruckenden
Wäre
Geldpolitik
verurs@@
shores
Seven
awaiting
ode
Johann
vas
Posten
226@@
oven
soviel
wieso
feldern
ausdrück@@
annter
überwunden
certain@@
preci@@
kings
recreation
broadcast@@
Prices
consec@@
Schuld@@
Swiss@@
Meeres
Krankenhaus
verlor@@
fachen
äter
zuzustimmen
Stehende
enforced
privilege
second-@@
exceeded
agers
prospec@@
Bangemann
recreational
sements
enzo
1200
alar@@
Provence
Käse
bein@@
Unix
Mitteilungen
elligkeit
Personals
Politikern
Leser
prinzipien
unabdingbar
grundle@@
fortress
opath@@
moment@@
masters
Rati@@
Emer@@
Polo

flich
Internetanschluss
Schwein@@
lossene
mediterranen
Zoll
tachten
Persönlichkeit
Einmischung
reveals
Exist@@
architect
plug
wns
remuner@@
Gothic
Check-Out
zeugt
ordnet
Mehrwertsteuer@@
krei@@
Erfahrungs@@
infected
bekistan
func@@
Pakist@@
Alexand@@
ias
Marx
Län@@
Installer
getro@@
1.000
Verband
Frühstück@@
dafri@@
lebte
einziger
gezielte
prinzip@@
Tabak
ält
intensiver
geordnete
Beschleunigung
erschwert
antrags
Errungenschaften
gladly
blow
acute
timent
beck
forti@@
Ment@@
alto
univer@@
MHz
rentals
HER@@
Schaff@@
DSL@@
ärten
Oase
Dien@@
übergreifenden
Gemäl@@
Vaku@@
geleistete
gewichte
Kürzung
LT@@
rhetoric
oun@@
Amb@@
German-@@
apo@@
exter@@
ender@@
patenti@@
Strei@@
Zeitsch@@
Erforschung
entlassen
bevorzugt
Verpack@@
absoluten
Zeilen
staates
ausgeht
älteste
orded
rig@@
competing
Fontaine
Naples
Moz@@
logos
Finger@@
Transfer@@
Vati@@
Klei@@
spiritu@@
Mär@@
EST@@
Bisch@@
ouren
zusammengefasst
sorgungs@@
berechnen
fehle
Schnittstellen
gendsten
möbli@@
Evans
emotions
vocal
purchaser
Cohn-Bendit
conversation
promotional
Vinc@@
cone
ouverne@@
rats@@
Kak@@
Donau@@
Reda@@
katastrophal@@
Bananen@@
ästheti@@
Dimensionen
Gewis@@
zukommt
Geduld
imstande
Anleger
voy
steil
mangelt
höre
anspruchsvollen
Gewässer
immt
Eingliederung
remark
fortun@@
democratisation
rami@@
translators
Business-@@
1965
Mam@@
aufrecht
Fußgänger@@
begannen
Instand@@
Standorte
Verbündeten
Beobachtung
Unterrich@@
Militär
excluding
Various
bay@@
Tibetan
xing
cans
pause
plen@@
lieu
jack
hion
Share
Max@@
mais
Tours
erweist
BugTraq
Kampagnen
erlei
veränderte
weites
coup
deter@@
nationality
1,000
ister
oul
illegally
realities
slave
rout@@
junior
POR@@
gangs@@
Send@@
anfän@@
warme
Konz@@
Seitdem
typen
ärz@@
richtete
flexibler
Vizepräsidentin
vertrete
Gebiet@@
Wechselkur@@
sixth
college
dut@@
aband@@
phenomena
barri@@
ol-@@
thy@@
Miguel
guy
Göteborg
Link@@
ASE
Seu@@
ziehungs@@
Öffentliche
schränken
kombinieren
Rücktritt
enswerten
unberühr@@
Einstimmigkeit
herbeizuführen
broke
sofar
under-@@
ethics
14th
charging
Brit@@
gratu@@
Asy@@
later@@
Jas@@
rics
Handbuch
Jesolo
Lite
Mandriva
fabrik
wäsche
Sün@@
gespannt
Gastronomie
eingetragen
grundsätzliche
übersehen
Tätigkeits@@
Minde@@
vertik@@
trug
üblicherweise
Lyn@@
wholeheartedly
disappointing
predomin@@
thema
persistent
achie@@
tiques
lifetime
tap
enjo@@
Knowledge
pumps
Law@@
Lee
erner
Kreis@@
och
Liga
ASPs
kammer@@
Süß@@
indert
Geschäftsführer
Parlament@@
operativen
erklärung
niedrigeren
populated
attracted
à-@@
precedent
And@@
Day@@
int@@
drawings
catalo@@
auber@@
wunderbar
marken
Rats
hten
Pflan@@
sphase
Durchbruch
begehen
Mitgliedsländern
NGL-Fraktion
gations
sp
conservative
trigger
ld
own@@
atics
C.@@
showers
Servers
Walking
Alumini@@
Flugzeug@@
fuhr@@
konsu@@
sätz@@
ethischen
glichkeiten
lenstoff@@
kümmert
strecken
Erwärmung
severely
vocation
tones
ghted
incoming
expects
hun@@
dish@@
process@@
Upper
Around
versatile
itiner@@
entre
mom@@
Luftverkehrs@@
Best@@
Bestand
tnismäßig
zusätz@@
konzentri@@
setzbar
superv@@
4000
negoti@@
defect
itar@@
nia
Rosa
ANT@@
Lieutenant
Residenz
Code@@
geograf@@
willigung
Akt
Konzeption
blieben
Paket@@
Behinderung
verweigern
Umstrukturi@@
9.00
contribut@@
liers
business@@
bere@@
inserted
console
shapes
Miner@@
Follow
riff
Steinberg
DER@@
schwarz
gnügen
Kriege
Verbesser@@
sammelt
einzigartiges
beanspru@@
Entla@@
realistische
zwingt
shaushal@@
äuft
Kampfes
lacks
Aid
judged
bow
submission
nesty
sat
[...]
